#include "magic_wand_model_data.h"


// We need to keep the data array aligned on some architectures.

#ifdef __has_attribute

#define HAVE_ATTRIBUTE(x) __has_attribute(x)

#else

#define HAVE_ATTRIBUTE(x) 0

#endif

#if HAVE_ATTRIBUTE(aligned) || (defined(__GNUC__) && !defined(__clang__))

#define DATA_ALIGN_ATTRIBUTE __attribute__((aligned(4)))

#else

#define DATA_ALIGN_ATTRIBUTE

#endif


const unsigned char g_magic_wand_model_data[] DATA_ALIGN_ATTRIBUTE = {

  0x1c, 0x00, 0x00, 0x00, 0x54, 0x46, 0x4c, 0x33, 0x14, 0x00, 0x20, 0x00,
  0x04, 0x00, 0x08, 0x00, 0x0c, 0x00, 0x10, 0x00, 0x14, 0x00, 0x00, 0x00,
  0x18, 0x00, 0x1c, 0x00, 0x14, 0x00, 0x00, 0x00, 0x03, 0x00, 0x00, 0x00,
  0x18, 0x00, 0x00, 0x00, 0x2c, 0x00, 0x00, 0x00, 0xd8, 0x00, 0x00, 0x00,
  0x2c, 0x00, 0x00, 0x00, 0x80, 0x00, 0x00, 0x00, 0x78, 0x00, 0x00, 0x00,
  0x05, 0x00, 0x00, 0x00, 0x28, 0x07, 0x00, 0x00, 0x44, 0x06, 0x00, 0x00,
  0xbc, 0x03, 0x00, 0x00, 0xf8, 0x02, 0x00, 0x00, 0xac, 0x01, 0x00, 0x00,
  0x01, 0x00, 0x00, 0x00, 0xd0, 0x00, 0x00, 0x00, 0x14, 0x00, 0x00, 0x00,
  0x98, 0x32, 0x00, 0x00, 0x94, 0x32, 0x00, 0x00, 0x8c, 0x31, 0x00, 0x00,
  0xd8, 0x30, 0x00, 0x00, 0x30, 0x30, 0x00, 0x00, 0xbc, 0x2f, 0x00, 0x00,
  0x50, 0x2f, 0x00, 0x00, 0x00, 0x13, 0x00, 0x00, 0xec, 0x11, 0x00, 0x00,
  0x10, 0x10, 0x00, 0x00, 0xb4, 0x07, 0x00, 0x00, 0x6c, 0x32, 0x00, 0x00,
  0x68, 0x32, 0x00, 0x00, 0x64, 0x32, 0x00, 0x00, 0x60, 0x32, 0x00, 0x00,
  0x5c, 0x32, 0x00, 0x00, 0x58, 0x32, 0x00, 0x00, 0x54, 0x32, 0x00, 0x00,
  0x50, 0x32, 0x00, 0x00, 0x3c, 0x00, 0x00, 0x00, 0x00, 0x00, 0x00, 0x00,
  0x01, 0x00, 0x00, 0x00, 0x0c, 0x00, 0x00, 0x00, 0x08, 0x00, 0x0c, 0x00,
  0x04, 0x00, 0x08, 0x00, 0x08, 0x00, 0x00, 0x00, 0x08, 0x00, 0x00, 0x00,
  0x13, 0x00, 0x00, 0x00, 0x13, 0x00, 0x00, 0x00, 0x6d, 0x69, 0x6e, 0x5f,
  0x72, 0x75, 0x6e, 0x74, 0x69, 0x6d, 0x65, 0x5f, 0x76, 0x65, 0x72, 0x73,
  0x69, 0x6f, 0x6e, 0x00, 0xfa, 0xce, 0xff, 0xff, 0x04, 0x00, 0x00, 0x00,
  0x10, 0x00, 0x00, 0x00, 0x31, 0x2e, 0x35, 0x2e, 0x30, 0x00, 0x00, 0x00,
  0x00, 0x00, 0x00, 0x00, 0x00, 0x00, 0x00, 0x00, 0x0f, 0x00, 0x00, 0x00,
  0x4d, 0x4c, 0x49, 0x52, 0x20, 0x43, 0x6f, 0x6e, 0x76, 0x65, 0x72, 0x74,
  0x65, 0x64, 0x2e, 0x00, 0x00, 0x00, 0x0e, 0x00, 0x18, 0x00, 0x04, 0x00,
  0x08, 0x00, 0x0c, 0x00, 0x10, 0x00, 0x14, 0x00, 0x0e, 0x00, 0x00, 0x00,
  0x14, 0x00, 0x00, 0x00, 0x5c, 0x00, 0x00, 0x00, 0x60, 0x00, 0x00, 0x00,
  0x64, 0x00, 0x00, 0x00, 0x84, 0x00, 0x00, 0x00, 0x12, 0x00, 0x00, 0x00,
  0x58, 0x31, 0x00, 0x00, 0xe8, 0x30, 0x00, 0x00, 0x44, 0x30, 0x00, 0x00,
  0x9c, 0x2f, 0x00, 0x00, 0xf4, 0x2e, 0x00, 0x00, 0x94, 0x2e, 0x00, 0x00,
  0x2c, 0x2e, 0x00, 0x00, 0xd8, 0x11, 0x00, 0x00, 0xbc, 0x10, 0x00, 0x00,
  0xe0, 0x0e, 0x00, 0x00, 0x0c, 0x06, 0x00, 0x00, 0x28, 0x05, 0x00, 0x00,
  0xe8, 0x03, 0x00, 0x00, 0x3c, 0x03, 0x00, 0x00, 0x98, 0x02, 0x00, 0x00,
  0xd4, 0x01, 0x00, 0x00, 0x10, 0x01, 0x00, 0x00, 0x84, 0x00, 0x00, 0x00,
  0x01, 0x00, 0x00, 0x00, 0x00, 0x00, 0x00, 0x00, 0x01, 0x00, 0x00, 0x00,
  0x11, 0x00, 0x00, 0x00, 0x08, 0x00, 0x00, 0x00, 0x74, 0x05, 0x00, 0x00,
  0x94, 0x04, 0x00, 0x00, 0x78, 0x03, 0x00, 0x00, 0xbc, 0x02, 0x00, 0x00,
  0x30, 0x02, 0x00, 0x00, 0x50, 0x01, 0x00, 0x00, 0xa8, 0x00, 0x00, 0x00,
  0x10, 0x00, 0x00, 0x00, 0x04, 0x00, 0x00, 0x00, 0x6d, 0x61, 0x69, 0x6e,
  0x00, 0x00, 0x00, 0x00, 0x7a, 0xff, 0xff, 0xff, 0x00, 0x00, 0x00, 0x09,
  0x04, 0x00, 0x00, 0x00, 0x1c, 0x00, 0x00, 0x00, 0x10, 0x00, 0x00, 0x00,
  0x04, 0x00, 0x00, 0x00, 0xf6, 0xcf, 0xff, 0xff, 0x00, 0x00, 0x80, 0x3f,
  0x01, 0x00, 0x00, 0x00, 0x11, 0x00, 0x00, 0x00, 0x01, 0x00, 0x00, 0x00,
  0x10, 0x00, 0x00, 0x00, 0xa0, 0xfa, 0xff, 0xff, 0x19, 0x00, 0x00, 0x00,
  0x00, 0x00, 0x00, 0x19, 0x01, 0x00, 0x00, 0x00, 0x84, 0xcf, 0xff, 0xff,
  0x14, 0x00, 0x00, 0x00, 0x12, 0x00, 0x00, 0x00, 0x18, 0x00, 0x00, 0x00,
  0x30, 0x00, 0x00, 0x00, 0x20, 0x00, 0x00, 0x00, 0x02, 0x00, 0x00, 0x00,
  0x01, 0x00, 0x00, 0x00, 0x03, 0x00, 0x00, 0x00, 0x08, 0x00, 0x00, 0x00,
  0x49, 0x64, 0x65, 0x6e, 0x74, 0x69, 0x74, 0x79, 0x00, 0x00, 0x00, 0x00,
  0x02, 0x00, 0x00, 0x00, 0xff, 0xff, 0xff, 0xff, 0x03, 0x00, 0x00, 0x00,
  0x68, 0xd0, 0xff, 0xff, 0x00, 0x00, 0x0e, 0x00, 0x18, 0x00, 0x08, 0x00,
  0x0c, 0x00, 0x10, 0x00, 0x07, 0x00, 0x14, 0x00, 0x0e, 0x00, 0x00, 0x00,
  0x00, 0x00, 0x00, 0x08, 0x03, 0x00, 0x00, 0x00, 0x18, 0x00, 0x00, 0x00,
  0x0c, 0x00, 0x00, 0x00, 0x04, 0x00, 0x00, 0x00, 0x84, 0xcf, 0xff, 0xff,
  0x01, 0x00, 0x00, 0x00, 0x10, 0x00, 0x00, 0x00, 0x03, 0x00, 0x00, 0x00,
  0x0f, 0x00, 0x00, 0x00, 0x07, 0x00, 0x00, 0x00, 0x04, 0x00, 0x00, 0x00,
  0x0c, 0xd0, 0xff, 0xff, 0x14, 0x00, 0x00, 0x00, 0x11, 0x00, 0x00, 0x00,
  0x18, 0x00, 0x00, 0x00, 0x5c, 0x00, 0x00, 0x00, 0x4c, 0x00, 0x00, 0x00,
  0x02, 0x00, 0x00, 0x00, 0x01, 0x00, 0x00, 0x00, 0x03, 0x00, 0x00, 0x00,
  0x34, 0x00, 0x00, 0x00, 0x73, 0x65, 0x71, 0x75, 0x65, 0x6e, 0x74, 0x69,
  0x61, 0x6c, 0x2f, 0x64, 0x65, 0x6e, 0x73, 0x65, 0x5f, 0x31, 0x2f, 0x4d,
  0x61, 0x74, 0x4d, 0x75, 0x6c, 0x3b, 0x73, 0x65, 0x71, 0x75, 0x65, 0x6e,
  0x74, 0x69, 0x61, 0x6c, 0x2f, 0x64, 0x65, 0x6e, 0x73, 0x65, 0x5f, 0x31,
  0x2f, 0x42, 0x69, 0x61, 0x73, 0x41, 0x64, 0x64, 0x00, 0x00, 0x00, 0x00,
  0x02, 0x00, 0x00, 0x00, 0xff, 0xff, 0xff, 0xff, 0x03, 0x00, 0x00, 0x00,
  0x0c, 0xd0, 0xff, 0xff, 0xda, 0xfc, 0xff, 0xff, 0x00, 0x00, 0x00, 0x08,
  0x03, 0x00, 0x00, 0x00, 0x24, 0x00, 0x00, 0x00, 0x18, 0x00, 0x00, 0x00,
  0x0c, 0x00, 0x00, 0x00, 0x00, 0x00, 0x06, 0x00, 0x08, 0x00, 0x07, 0x00,
  0x06, 0x00, 0x00, 0x00, 0x00, 0x00, 0x00, 0x01, 0x01, 0x00, 0x00, 0x00,
  0x0f, 0x00, 0x00, 0x00, 0x03, 0x00, 0x00, 0x00, 0x0e, 0x00, 0x00, 0x00,
  0x06, 0x00, 0x00, 0x00, 0x03, 0x00, 0x00, 0x00, 0xe8, 0xfb, 0xff, 0xff,
  0x09, 0x00, 0x00, 0x00, 0x00, 0x00, 0x00, 0x09, 0x01, 0x00, 0x00, 0x00,
  0xcc, 0xd0, 0xff, 0xff, 0x14, 0x00, 0x00, 0x00, 0x10, 0x00, 0x00, 0x00,
  0x18, 0x00, 0x00, 0x00, 0x6c, 0x00, 0x00, 0x00, 0x5c, 0x00, 0x00, 0x00,
  0x02, 0x00, 0x00, 0x00, 0x01, 0x00, 0x00, 0x00, 0x10, 0x00, 0x00, 0x00,
  0x46, 0x00, 0x00, 0x00, 0x73, 0x65, 0x71, 0x75, 0x65, 0x6e, 0x74, 0x69,
  0x61, 0x6c, 0x2f, 0x64, 0x65, 0x6e, 0x73, 0x65, 0x2f, 0x4d, 0x61, 0x74,
  0x4d, 0x75, 0x6c, 0x3b, 0x73, 0x65, 0x71, 0x75, 0x65, 0x6e, 0x74, 0x69,
  0x61, 0x6c, 0x2f, 0x64, 0x65, 0x6e, 0x73, 0x65, 0x2f, 0x52, 0x65, 0x6c,
  0x75, 0x3b, 0x73, 0x65, 0x71, 0x75, 0x65, 0x6e, 0x74, 0x69, 0x61, 0x6c,
  0x2f, 0x64, 0x65, 0x6e, 0x73, 0x65, 0x2f, 0x42, 0x69, 0x61, 0x73, 0x41,
  0x64, 0x64, 0x00, 0x00, 0x02, 0x00, 0x00, 0x00, 0xff, 0xff, 0xff, 0xff,
  0x10, 0x00, 0x00, 0x00, 0xec, 0xd1, 0xff, 0xff, 0x00, 0x00, 0x0a, 0x00,
  0x10, 0x00, 0x04, 0x00, 0x08, 0x00, 0x0c, 0x00, 0x0a, 0x00, 0x00, 0x00,
  0x02, 0x00, 0x00, 0x00, 0x10, 0x00, 0x00, 0x00, 0x04, 0x00, 0x00, 0x00,
  0x01, 0x00, 0x00, 0x00, 0x0e, 0x00, 0x00, 0x00, 0x02, 0x00, 0x00, 0x00,
  0x0d, 0x00, 0x00, 0x00, 0x05, 0x00, 0x00, 0x00, 0xa8, 0xfc, 0xff, 0xff,
  0x16, 0x00, 0x00, 0x00, 0x00, 0x00, 0x00, 0x16, 0x01, 0x00, 0x00, 0x00,
  0x8c, 0xd1, 0xff, 0xff, 0x14, 0x00, 0x00, 0x00, 0x0f, 0x00, 0x00, 0x00,
  0x18, 0x00, 0x00, 0x00, 0x40, 0x00, 0x00, 0x00, 0x30, 0x00, 0x00, 0x00,
  0x02, 0x00, 0x00, 0x00, 0x01, 0x00, 0x00, 0x00, 0x70, 0x00, 0x00, 0x00,
  0x1a, 0x00, 0x00, 0x00, 0x73, 0x65, 0x71, 0x75, 0x65, 0x6e, 0x74, 0x69,
  0x61, 0x6c, 0x2f, 0x66, 0x6c, 0x61, 0x74, 0x74, 0x65, 0x6e, 0x2f, 0x52,
  0x65, 0x73, 0x68, 0x61, 0x70, 0x65, 0x00, 0x00, 0x02, 0x00, 0x00, 0x00,
  0xff, 0xff, 0xff, 0xff, 0x70, 0x00, 0x00, 0x00, 0x70, 0xd1, 0xff, 0xff,
  0x3e, 0xfe, 0xff, 0xff, 0x00, 0x00, 0x00, 0x05, 0x01, 0x00, 0x00, 0x00,
  0x38, 0x00, 0x00, 0x00, 0x2c, 0x00, 0x00, 0x00, 0x14, 0x00, 0x00, 0x00,
  0x00, 0x00, 0x0e, 0x00, 0x14, 0x00, 0x00, 0x00, 0x10, 0x00, 0x0c, 0x00,
  0x08, 0x00, 0x04, 0x00, 0x0e, 0x00, 0x00, 0x00, 0x03, 0x00, 0x00, 0x00,
  0x01, 0x00, 0x00, 0x00, 0x03, 0x00, 0x00, 0x00, 0x01, 0x00, 0x00, 0x00,
  0x01, 0x00, 0x00, 0x00, 0x0d, 0x00, 0x00, 0x00, 0x01, 0x00, 0x00, 0x00,
  0x0c, 0x00, 0x00, 0x00, 0x2c, 0xd2, 0xff, 0xff, 0x14, 0x00, 0x00, 0x00,
  0x0e, 0x00, 0x00, 0x00, 0x20, 0x00, 0x00, 0x00, 0x58, 0x00, 0x00, 0x00,
  0x40, 0x00, 0x00, 0x00, 0x04, 0x00, 0x00, 0x00, 0x01, 0x00, 0x00, 0x00,
  0x07, 0x00, 0x00, 0x00, 0x01, 0x00, 0x00, 0x00, 0x10, 0x00, 0x00, 0x00,
  0x22, 0x00, 0x00, 0x00, 0x73, 0x65, 0x71, 0x75, 0x65, 0x6e, 0x74, 0x69,
  0x61, 0x6c, 0x2f, 0x6d, 0x61, 0x78, 0x5f, 0x70, 0x6f, 0x6f, 0x6c, 0x69,
  0x6e, 0x67, 0x32, 0x64, 0x5f, 0x31, 0x2f, 0x4d, 0x61, 0x78, 0x50, 0x6f,
  0x6f, 0x6c, 0x00, 0x00, 0x04, 0x00, 0x00, 0x00, 0xff, 0xff, 0xff, 0xff,
  0x07, 0x00, 0x00, 0x00, 0x01, 0x00, 0x00, 0x00, 0x10, 0x00, 0x00, 0x00,
  0x28, 0xd2, 0xff, 0xff, 0x1a, 0xfe, 0xff, 0xff, 0x00, 0x00, 0x00, 0x01,
  0x24, 0x00, 0x00, 0x00, 0x18, 0x00, 0x00, 0x00, 0x04, 0x00, 0x00, 0x00,
  0x0c, 0xfe, 0xff, 0xff, 0x01, 0x00, 0x00, 0x00, 0x01, 0x00, 0x00, 0x00,
  0x00, 0x00, 0x00, 0x01, 0x01, 0x00, 0x00, 0x00, 0x0c, 0x00, 0x00, 0x00,
  0x03, 0x00, 0x00, 0x00, 0x0b, 0x00, 0x00, 0x00, 0x09, 0x00, 0x00, 0x00,
  0x02, 0x00, 0x00, 0x00, 0xd4, 0xd2, 0xff, 0xff, 0x14, 0x00, 0x00, 0x00,
  0x0d, 0x00, 0x00, 0x00, 0x20, 0x00, 0x00, 0x00, 0xb8, 0x00, 0x00, 0x00,
  0xa0, 0x00, 0x00, 0x00, 0x04, 0x00, 0x00, 0x00, 0x01, 0x00, 0x00, 0x00,
  0x15, 0x00, 0x00, 0x00, 0x01, 0x00, 0x00, 0x00, 0x10, 0x00, 0x00, 0x00,
  0x83, 0x00, 0x00, 0x00, 0x73, 0x65, 0x71, 0x75, 0x65, 0x6e, 0x74, 0x69,
  0x61, 0x6c, 0x2f, 0x63, 0x6f, 0x6e, 0x76, 0x32, 0x64, 0x5f, 0x31, 0x2f,
  0x52, 0x65, 0x6c, 0x75, 0x3b, 0x73, 0x65, 0x71, 0x75, 0x65, 0x6e, 0x74,
  0x69, 0x61, 0x6c, 0x2f, 0x63, 0x6f, 0x6e, 0x76, 0x32, 0x64, 0x5f, 0x31,
  0x2f, 0x42, 0x69, 0x61, 0x73, 0x41, 0x64, 0x64, 0x3b, 0x73, 0x65, 0x71,
  0x75, 0x65, 0x6e, 0x74, 0x69, 0x61, 0x6c, 0x2f, 0x63, 0x6f, 0x6e, 0x76,
  0x32, 0x64, 0x5f, 0x31, 0x2f, 0x43, 0x6f, 0x6e, 0x76, 0x32, 0x44, 0x3b,
  0x73, 0x65, 0x71, 0x75, 0x65, 0x6e, 0x74, 0x69, 0x61, 0x6c, 0x2f, 0x63,
  0x6f, 0x6e, 0x76, 0x32, 0x64, 0x5f, 0x31, 0x2f, 0x42, 0x69, 0x61, 0x73,
  0x41, 0x64, 0x64, 0x2f, 0x52, 0x65, 0x61, 0x64, 0x56, 0x61, 0x72, 0x69,
  0x61, 0x62, 0x6c, 0x65, 0x4f, 0x70, 0x2f, 0x72, 0x65, 0x73, 0x6f, 0x75,
  0x72, 0x63, 0x65, 0x00, 0x04, 0x00, 0x00, 0x00, 0xff, 0xff, 0xff, 0xff,
  0x15, 0x00, 0x00, 0x00, 0x01, 0x00, 0x00, 0x00, 0x10, 0x00, 0x00, 0x00,
  0x40, 0xd4, 0xff, 0xff, 0x00, 0x00, 0x0e, 0x00, 0x1a, 0x00, 0x08, 0x00,
  0x0c, 0x00, 0x10, 0x00, 0x07, 0x00, 0x14, 0x00, 0x0e, 0x00, 0x00, 0x00,
  0x00, 0x00, 0x00, 0x05, 0x01, 0x00, 0x00, 0x00, 0x3c, 0x00, 0x00, 0x00,
  0x30, 0x00, 0x00, 0x00, 0x14, 0x00, 0x00, 0x00, 0x00, 0x00, 0x0e, 0x00,
  0x18, 0x00, 0x17, 0x00, 0x10, 0x00, 0x0c, 0x00, 0x08, 0x00, 0x04, 0x00,
  0x0e, 0x00, 0x00, 0x00, 0x03, 0x00, 0x00, 0x00, 0x03, 0x00, 0x00, 0x00,
  0x03, 0x00, 0x00, 0x00, 0x03, 0x00, 0x00, 0x00, 0x00, 0x00, 0x00, 0x01,
  0x01, 0x00, 0x00, 0x00, 0x0b, 0x00, 0x00, 0x00, 0x01, 0x00, 0x00, 0x00,
  0x0a, 0x00, 0x00, 0x00, 0x2c, 0xff, 0xff, 0xff, 0x11, 0x00, 0x00, 0x00,
  0x00, 0x00, 0x00, 0x11, 0x01, 0x00, 0x00, 0x00, 0x10, 0xd4, 0xff, 0xff,
  0x14, 0x00, 0x00, 0x00, 0x0c, 0x00, 0x00, 0x00, 0x20, 0x00, 0x00, 0x00,
  0x58, 0x00, 0x00, 0x00, 0x40, 0x00, 0x00, 0x00, 0x04, 0x00, 0x00, 0x00,
  0x01, 0x00, 0x00, 0x00, 0x15, 0x00, 0x00, 0x00, 0x01, 0x00, 0x00, 0x00,
  0x08, 0x00, 0x00, 0x00, 0x20, 0x00, 0x00, 0x00, 0x73, 0x65, 0x71, 0x75,
  0x65, 0x6e, 0x74, 0x69, 0x61, 0x6c, 0x2f, 0x6d, 0x61, 0x78, 0x5f, 0x70,
  0x6f, 0x6f, 0x6c, 0x69, 0x6e, 0x67, 0x32, 0x64, 0x2f, 0x4d, 0x61, 0x78,
  0x50, 0x6f, 0x6f, 0x6c, 0x00, 0x00, 0x00, 0x00, 0x04, 0x00, 0x00, 0x00,
  0xff, 0xff, 0xff, 0xff, 0x15, 0x00, 0x00, 0x00, 0x01, 0x00, 0x00, 0x00,
  0x08, 0x00, 0x00, 0x00, 0x1c, 0xd5, 0xff, 0xff, 0x00, 0x00, 0x0e, 0x00,
  0x14, 0x00, 0x00, 0x00, 0x08, 0x00, 0x0c, 0x00, 0x07, 0x00, 0x10, 0x00,
  0x0e, 0x00, 0x00, 0x00, 0x00, 0x00, 0x00, 0x01, 0x30, 0x00, 0x00, 0x00,
  0x24, 0x00, 0x00, 0x00, 0x10, 0x00, 0x00, 0x00, 0x0c, 0x00, 0x10, 0x00,
  0x00, 0x00, 0x04, 0x00, 0x08, 0x00, 0x0f, 0x00, 0x0c, 0x00, 0x00, 0x00,
  0x01, 0x00, 0x00, 0x00, 0x01, 0x00, 0x00, 0x00, 0x00, 0x00, 0x00, 0x01,
  0x01, 0x00, 0x00, 0x00, 0x0a, 0x00, 0x00, 0x00, 0x03, 0x00, 0x00, 0x00,
  0x00, 0x00, 0x00, 0x00, 0x08, 0x00, 0x00, 0x00, 0x01, 0x00, 0x00, 0x00,
  0x0c, 0x00, 0x10, 0x00, 0x0b, 0x00, 0x00, 0x00, 0x0c, 0x00, 0x04, 0x00,
  0x0c, 0x00, 0x00, 0x00, 0x03, 0x00, 0x00, 0x00, 0x00, 0x00, 0x00, 0x03,
  0x01, 0x00, 0x00, 0x00, 0xf0, 0xd4, 0xff, 0xff, 0x14, 0x00, 0x00, 0x00,
  0x0b, 0x00, 0x00, 0x00, 0x20, 0x00, 0x00, 0x00, 0xb0, 0x00, 0x00, 0x00,
  0x98, 0x00, 0x00, 0x00, 0x04, 0x00, 0x00, 0x00, 0x01, 0x00, 0x00, 0x00,
  0x40, 0x00, 0x00, 0x00, 0x03, 0x00, 0x00, 0x00, 0x08, 0x00, 0x00, 0x00,
  0x7b, 0x00, 0x00, 0x00, 0x73, 0x65, 0x71, 0x75, 0x65, 0x6e, 0x74, 0x69,
  0x61, 0x6c, 0x2f, 0x63, 0x6f, 0x6e, 0x76, 0x32, 0x64, 0x2f, 0x52, 0x65,
  0x6c, 0x75, 0x3b, 0x73, 0x65, 0x71, 0x75, 0x65, 0x6e, 0x74, 0x69, 0x61,
  0x6c, 0x2f, 0x63, 0x6f, 0x6e, 0x76, 0x32, 0x64, 0x2f, 0x42, 0x69, 0x61,
  0x73, 0x41, 0x64, 0x64, 0x3b, 0x73, 0x65, 0x71, 0x75, 0x65, 0x6e, 0x74,
  0x69, 0x61, 0x6c, 0x2f, 0x63, 0x6f, 0x6e, 0x76, 0x32, 0x64, 0x2f, 0x43,
  0x6f, 0x6e, 0x76, 0x32, 0x44, 0x3b, 0x73, 0x65, 0x71, 0x75, 0x65, 0x6e,
  0x74, 0x69, 0x61, 0x6c, 0x2f, 0x63, 0x6f, 0x6e, 0x76, 0x32, 0x64, 0x2f,
  0x42, 0x69, 0x61, 0x73, 0x41, 0x64, 0x64, 0x2f, 0x52, 0x65, 0x61, 0x64,
  0x56, 0x61, 0x72, 0x69, 0x61, 0x62, 0x6c, 0x65, 0x4f, 0x70, 0x2f, 0x72,
  0x65, 0x73, 0x6f, 0x75, 0x72, 0x63, 0x65, 0x00, 0x04, 0x00, 0x00, 0x00,
  0xff, 0xff, 0xff, 0xff, 0x40, 0x00, 0x00, 0x00, 0x03, 0x00, 0x00, 0x00,
  0x08, 0x00, 0x00, 0x00, 0x44, 0xd5, 0xff, 0xff, 0x4e, 0xd6, 0xff, 0xff,
  0x04, 0x00, 0x00, 0x00, 0x00, 0x08, 0x00, 0x00, 0xdd, 0xf5, 0xdb, 0xbd,
  0xa2, 0xf3, 0x25, 0x3e, 0xf2, 0xea, 0x03, 0xbe, 0x96, 0x58, 0xee, 0xbd,
  0x32, 0x40, 0x84, 0xbe, 0xb7, 0xb3, 0x1f, 0x3d, 0xee, 0x89, 0xca, 0x3d,
  0x9f, 0x1d, 0x1f, 0xbe, 0x51, 0xe6, 0x28, 0xbe, 0x8a, 0xbb, 0xa6, 0x3b,
  0x7f, 0xb0, 0xde, 0x3c, 0xee, 0x0c, 0xa4, 0xbc, 0xf2, 0xa5, 0xca, 0x3d,
  0xc5, 0x5e, 0xb1, 0xbd, 0xac, 0x3f, 0x25, 0xbe, 0xbf, 0xc4, 0x3b, 0xbd,
  0x4a, 0x24, 0xa0, 0xbc, 0x3e, 0x25, 0x24, 0x3e, 0xc1, 0x61, 0xee, 0xbc,
  0xbe, 0xae, 0xf3, 0x3d, 0xa7, 0xdf, 0xb1, 0x3d, 0x89, 0x27, 0xaa, 0xbd,
  0xad, 0x20, 0x25, 0xbe, 0x0d, 0x9a, 0xbd, 0xbd, 0x79, 0x28, 0x4d, 0x3e,
  0x74, 0x58, 0x30, 0xbd, 0xc6, 0x5a, 0x0b, 0xbe, 0xf8, 0x27, 0x48, 0xbd,
  0x24, 0x3b, 0xda, 0xbc, 0x25, 0x75, 0x6d, 0xbe, 0x29, 0xbc, 0x45, 0xbc,
  0x12, 0x1b, 0x95, 0xbe, 0x3d, 0xe3, 0x2b, 0xbe, 0x9a, 0x7b, 0x0a, 0x3b,
  0xb7, 0x47, 0x7d, 0x3e, 0x04, 0xa1, 0x38, 0xbd, 0x77, 0x62, 0x48, 0xbe,
  0x33, 0xf3, 0x6c, 0x3d, 0x13, 0x37, 0x58, 0xbb, 0x05, 0x39, 0x81, 0xbe,
  0xac, 0x2f, 0x6d, 0xbe, 0x27, 0x38, 0xcd, 0x3b, 0x49, 0x3a, 0x4f, 0xbe,
  0x98, 0x9d, 0x18, 0xbe, 0xf9, 0x50, 0x31, 0x3e, 0x3c, 0x93, 0xaf, 0x3d,
  0x15, 0x76, 0xb4, 0xbd, 0xec, 0xf0, 0xae, 0xbe, 0xc6, 0x54, 0x09, 0x3e,
  0xf1, 0x4f, 0x94, 0x3d, 0xc6, 0xa1, 0x3f, 0x3e, 0x0f, 0x34, 0xaa, 0x3d,
  0x54, 0x49, 0x9a, 0xbe, 0x3f, 0xfc, 0x43, 0x3e, 0x2d, 0x9e, 0xf9, 0x3d,
  0x32, 0x90, 0x2b, 0xbe, 0xe5, 0x09, 0x59, 0xbe, 0xcc, 0xca, 0x3e, 0x3e,
  0x34, 0x14, 0x03, 0x3e, 0x87, 0x33, 0x4c, 0x3e, 0xf6, 0x5c, 0xce, 0x3c,
  0x18, 0x7a, 0x8f, 0xbe, 0xd5, 0x55, 0x80, 0xbb, 0xb9, 0x3c, 0x88, 0xbe,
  0x50, 0xae, 0x19, 0x3e, 0x1b, 0x93, 0xbb, 0x3d, 0xb7, 0x47, 0x4a, 0x3d,
  0x51, 0x80, 0x5a, 0xbe, 0xf1, 0x5c, 0x8c, 0x3e, 0xb7, 0x3c, 0x83, 0xbe,
  0xa8, 0xb5, 0x1f, 0x3e, 0xb3, 0x2a, 0xad, 0x3d, 0xfb, 0x73, 0x04, 0xbe,
  0x7d, 0x33, 0x08, 0x3d, 0xdf, 0x3e, 0x82, 0x3d, 0xef, 0xb5, 0xa2, 0xbe,
  0xe7, 0x26, 0x71, 0x3e, 0x11, 0x57, 0x92, 0xbe, 0xc9, 0x84, 0x86, 0x3e,
  0x57, 0xd7, 0xaf, 0x3d, 0x53, 0x54, 0xbe, 0x3d, 0x94, 0x52, 0xb5, 0x3b,
  0xd1, 0x66, 0x3a, 0xbe, 0x55, 0x73, 0x97, 0xbe, 0x26, 0xb7, 0x6a, 0xbe,
  0x3c, 0x41, 0xf0, 0xbd, 0x2b, 0x89, 0x07, 0x3e, 0xbd, 0x64, 0xa6, 0x3d,
  0xff, 0x38, 0x27, 0x3e, 0x50, 0xe0, 0x8f, 0x3d, 0x35, 0xb4, 0x41, 0xbe,
  0xac, 0x4b, 0xdf, 0xbe, 0x78, 0xf2, 0x85, 0xbe, 0xd4, 0x4e, 0x0a, 0x3e,
  0x3d, 0x7a, 0x77, 0x3e, 0x6f, 0x73, 0x0b, 0xbc, 0x0f, 0x3e, 0xaa, 0x3d,
  0x28, 0xe2, 0x03, 0xbe, 0x2a, 0xa2, 0x92, 0xbd, 0x5e, 0x21, 0x1b, 0x3e,
  0xb8, 0x78, 0xe0, 0xbd, 0x25, 0x3a, 0x10, 0x3b, 0x42, 0x64, 0x4c, 0xbe,
  0x2f, 0x22, 0xf7, 0xbd, 0x69, 0x29, 0x96, 0xbd, 0xf8, 0x0c, 0x27, 0x3d,
  0x40, 0x63, 0x20, 0x3e, 0xa7, 0x59, 0x1a, 0x3d, 0xae, 0xf8, 0x1b, 0xbe,
  0x59, 0xfa, 0x9b, 0xbd, 0x8e, 0x31, 0x18, 0xbe, 0x75, 0xc8, 0x69, 0x3d,
  0xb2, 0xbc, 0x0e, 0x3d, 0x1a, 0xd0, 0x81, 0x3e, 0x35, 0xbb, 0x52, 0xbe,
  0xce, 0xf6, 0x88, 0x3e, 0x95, 0xa1, 0x96, 0x3d, 0x2b, 0x72, 0xaa, 0x3d,
  0xce, 0x6f, 0xcf, 0xbd, 0xc4, 0x38, 0x85, 0xbc, 0xec, 0x52, 0xfe, 0x3c,
  0xba, 0xd7, 0x61, 0xbe, 0xab, 0xee, 0x65, 0xbe, 0x6d, 0xf7, 0x44, 0x3e,
  0x15, 0x58, 0x18, 0xbe, 0x5c, 0x17, 0xfa, 0xbd, 0x9f, 0x49, 0x33, 0x3e,
  0xd2, 0x38, 0x75, 0xbe, 0xf3, 0x33, 0x93, 0xbd, 0xb2, 0xbe, 0xa7, 0x3e,
  0xa1, 0x95, 0x9a, 0xbe, 0x07, 0xe1, 0x90, 0x3e, 0xd8, 0xf0, 0x98, 0xbe,
  0x9b, 0x3c, 0x29, 0xbd, 0xec, 0x67, 0xf6, 0xbc, 0x23, 0x5a, 0x0f, 0xbe,
  0x3a, 0x48, 0x2f, 0xbd, 0xb5, 0x7e, 0x9b, 0x3e, 0x30, 0x33, 0x16, 0x3d,
  0xad, 0x61, 0xe7, 0x3d, 0xfb, 0xec, 0x51, 0xbe, 0x17, 0x7c, 0x97, 0xbc,
  0x9e, 0x4c, 0x0f, 0xbe, 0x65, 0xaa, 0x82, 0xbd, 0x02, 0xa6, 0x05, 0xbb,
  0xc0, 0x9a, 0x07, 0x3e, 0x48, 0x2a, 0x86, 0xbe, 0x15, 0x6a, 0xfb, 0x3d,
  0x92, 0x11, 0xc2, 0xbb, 0x1c, 0x1a, 0xb8, 0xbd, 0xcf, 0x46, 0x08, 0xbe,
  0x37, 0x6a, 0xd1, 0xbd, 0xc1, 0xe5, 0x20, 0xbe, 0xc2, 0x1a, 0xab, 0x3e,
  0x35, 0x27, 0x82, 0xbd, 0x11, 0x3d, 0xbf, 0xbb, 0x23, 0x12, 0xf6, 0x3d,
  0xeb, 0xe7, 0x49, 0x3e, 0xe5, 0x3b, 0xe7, 0xbc, 0xbe, 0x14, 0xe5, 0x3c,
  0xe6, 0xbc, 0xe7, 0x3d, 0x5f, 0xe9, 0x85, 0xbd, 0x00, 0x39, 0x26, 0x3d,
  0x80, 0xcb, 0x96, 0xbe, 0x66, 0xc8, 0xd4, 0x3d, 0x60, 0x62, 0xee, 0x3d,
  0x12, 0x82, 0xcf, 0xbc, 0x71, 0x53, 0xc1, 0xbd, 0x56, 0x0e, 0x64, 0x3e,
  0xce, 0x71, 0xdd, 0xbd, 0x64, 0x92, 0x5f, 0x3e, 0xb8, 0x2c, 0xb2, 0xbe,
  0x1a, 0x54, 0x00, 0xbd, 0x4a, 0xf0, 0x71, 0xbd, 0x6e, 0xaf, 0x10, 0x3e,
  0x73, 0x11, 0xd4, 0x3c, 0xb0, 0xe7, 0x6a, 0xbd, 0x8e, 0xb5, 0x68, 0x3e,
  0x94, 0xd8, 0x0a, 0x3e, 0x96, 0x1e, 0x85, 0xbe, 0x6e, 0x8d, 0x5e, 0xbe,
  0x33, 0x96, 0x21, 0x3d, 0x50, 0x70, 0x6b, 0x3e, 0x4c, 0x39, 0xd3, 0x3d,
  0x20, 0x10, 0x68, 0xbe, 0x86, 0x92, 0x03, 0x3e, 0x31, 0x3a, 0x1c, 0xbe,
  0x31, 0x89, 0x63, 0xbe, 0x03, 0x42, 0x0f, 0xbe, 0x59, 0xc4, 0x96, 0xbd,
  0xc0, 0x11, 0x14, 0xbe, 0x2d, 0xdd, 0x06, 0x3e, 0x02, 0xbe, 0x26, 0x3d,
  0xad, 0x75, 0x20, 0xbe, 0x43, 0x80, 0xda, 0xbd, 0x9c, 0x36, 0x48, 0xbe,
  0x7d, 0xb4, 0x6f, 0x3e, 0x90, 0x42, 0xa2, 0xbd, 0x04, 0xa4, 0x57, 0x3c,
  0xcf, 0x46, 0x66, 0xbe, 0x9e, 0xd7, 0xc5, 0x3d, 0x4c, 0x4a, 0x24, 0xbe,
  0x68, 0x22, 0x80, 0xbd, 0x2c, 0x99, 0x60, 0xbd, 0x4f, 0xef, 0xcf, 0xbd,
  0xc1, 0x5a, 0x29, 0xbd, 0x67, 0x17, 0xc2, 0x3d, 0xd4, 0xa0, 0x91, 0xbe,
  0x42, 0xd1, 0x6e, 0x3d, 0x1d, 0x7e, 0x57, 0xbe, 0x37, 0x04, 0xef, 0xbc,
  0x1d, 0xe8, 0x5b, 0xbe, 0x1e, 0x5f, 0xaa, 0xbd, 0x55, 0xf0, 0x2d, 0xbe,
  0x67, 0x9a, 0x31, 0x3e, 0x87, 0xe4, 0x00, 0xbd, 0xd3, 0xc5, 0x87, 0xbd,
  0x69, 0x91, 0x07, 0xbc, 0x42, 0x1d, 0xa5, 0xbe, 0xc6, 0xf9, 0x38, 0xbe,
  0xce, 0xb9, 0x03, 0xbe, 0xfc, 0x51, 0x0d, 0xbe, 0x07, 0x2c, 0x02, 0xbe,
  0xf1, 0xd7, 0x4c, 0xbe, 0x82, 0xac, 0xaf, 0x3d, 0xba, 0x0b, 0xa4, 0x3c,
  0xa0, 0x30, 0x31, 0xbe, 0xb7, 0xbe, 0x9d, 0xbc, 0x8d, 0xec, 0x81, 0xbe,
  0x34, 0xb4, 0x54, 0xbe, 0x54, 0x50, 0x7c, 0x3c, 0x24, 0x31, 0xb5, 0xbd,
  0xd5, 0xc1, 0x6f, 0xbc, 0x20, 0x36, 0x52, 0xbe, 0xc8, 0xcf, 0x1a, 0xbe,
  0x48, 0x08, 0xd6, 0xbd, 0x8f, 0x95, 0x1d, 0xbc, 0x40, 0x5f, 0x9c, 0xbe,
  0x07, 0x2d, 0x78, 0x3d, 0x5c, 0x71, 0x82, 0xbe, 0xf2, 0xa2, 0x8e, 0xbd,
  0x08, 0x57, 0x9f, 0x3d, 0x38, 0x2f, 0x0f, 0xbe, 0xd4, 0xc8, 0x35, 0xbe,
  0x7e, 0x10, 0xb9, 0xbd, 0x1b, 0x27, 0x42, 0xbe, 0xa9, 0x73, 0x98, 0xbd,
  0x66, 0x3f, 0x58, 0xbe, 0xe6, 0x62, 0x97, 0xbd, 0x8d, 0x70, 0x1c, 0xbd,
  0x84, 0x57, 0xd6, 0xbc, 0x90, 0x9c, 0xdb, 0xbd, 0xe5, 0x53, 0x85, 0xbe,
  0xf8, 0x05, 0x9a, 0xbd, 0xbc, 0x9d, 0xb5, 0x3d, 0xa0, 0x01, 0x4d, 0x3c,
  0x42, 0x24, 0xaa, 0x3e, 0x16, 0x7f, 0x9f, 0x3e, 0xb2, 0xb6, 0xef, 0xbd,
  0x07, 0x1f, 0xa2, 0xbe, 0xaa, 0x1b, 0xc5, 0x3d, 0x4b, 0xf8, 0xd8, 0x3d,
  0xfd, 0xf6, 0x9c, 0x3d, 0xff, 0x59, 0x6c, 0xbd, 0x41, 0x79, 0xa6, 0xbd,
  0x09, 0xdf, 0x9d, 0x3c, 0xfb, 0x65, 0x3f, 0xbe, 0x3d, 0x20, 0xb0, 0xbe,
  0x4d, 0x64, 0x1d, 0xbe, 0x1d, 0x0f, 0x3f, 0xbd, 0x96, 0x87, 0x8b, 0x3d,
  0x77, 0xb1, 0x5e, 0x3e, 0x8e, 0x85, 0x8d, 0x3e, 0x1b, 0x3c, 0xa5, 0xbd,
  0x3d, 0x24, 0x0f, 0x3e, 0x31, 0x28, 0xba, 0xbe, 0x0f, 0x3b, 0xa0, 0xbd,
  0x43, 0xb8, 0x91, 0xbe, 0x77, 0x99, 0xaa, 0x3d, 0x0a, 0x53, 0x5c, 0x3d,
  0xf2, 0x2d, 0x62, 0x3e, 0x14, 0x0b, 0xff, 0x3c, 0x27, 0x07, 0x2d, 0x3e,
  0x47, 0x9e, 0xaa, 0xbe, 0x8b, 0x60, 0x11, 0x3e, 0x4b, 0x1a, 0x29, 0xbe,
  0x80, 0x02, 0x21, 0xbe, 0x57, 0xc7, 0x12, 0xbe, 0xe8, 0xae, 0xad, 0xbc,
  0xf3, 0x46, 0x7e, 0x3e, 0xa8, 0x72, 0xac, 0xbd, 0xc9, 0x95, 0xdd, 0x3e,
  0x30, 0x10, 0xd8, 0xbd, 0x18, 0xd1, 0x13, 0x3e, 0x50, 0xfd, 0x10, 0xbe,
  0xf9, 0xeb, 0x92, 0xbd, 0x90, 0x16, 0xca, 0xbd, 0x80, 0xdb, 0x55, 0xbd,
  0x8b, 0xe7, 0x44, 0x3d, 0x90, 0x4e, 0x15, 0x3e, 0xd8, 0x41, 0x55, 0x3e,
  0x4d, 0x4a, 0xb2, 0xbc, 0xc4, 0xcb, 0xd2, 0x3d, 0x62, 0x59, 0x0e, 0xbe,
  0x45, 0x20, 0xb2, 0xbd, 0x8d, 0xed, 0x91, 0x3d, 0x5e, 0xf5, 0x9a, 0xbe,
  0x68, 0x59, 0x79, 0x3e, 0xe0, 0xe8, 0x22, 0xbe, 0x71, 0x49, 0x8c, 0x3d,
  0x14, 0x38, 0xd3, 0xbd, 0x5f, 0x18, 0xd6, 0x3d, 0xec, 0x37, 0x9c, 0xbe,
  0x55, 0xca, 0xaf, 0x3d, 0xce, 0x9f, 0x90, 0xbe, 0xb3, 0x9d, 0x74, 0x3e,
  0x2d, 0x85, 0x86, 0x3c, 0x70, 0xf8, 0x35, 0x3d, 0x35, 0xe8, 0x30, 0x3e,
  0xdc, 0x76, 0xd9, 0xbd, 0xc9, 0x56, 0x02, 0x3e, 0x71, 0x47, 0x7b, 0x3d,
  0xd9, 0xf8, 0xf6, 0x3d, 0x8b, 0xa9, 0xe3, 0xbb, 0x1e, 0xda, 0x88, 0xbd,
  0xa1, 0x7c, 0x74, 0x3e, 0x17, 0x90, 0x38, 0x3e, 0x10, 0x15, 0x8e, 0xbe,
  0x62, 0x52, 0x58, 0x3e, 0x7f, 0x30, 0xb6, 0xbd, 0x8c, 0xcf, 0x91, 0x3c,
  0xec, 0x75, 0x6f, 0x3e, 0xca, 0x9f, 0x45, 0xbd, 0xcf, 0x44, 0x35, 0xbe,
  0x7e, 0xeb, 0x78, 0x3c, 0xe9, 0x24, 0x3b, 0xbe, 0x8b, 0x64, 0x86, 0x3c,
  0x11, 0x6a, 0x67, 0xbe, 0x87, 0xca, 0xc2, 0xbc, 0x9e, 0xce, 0x22, 0x3d,
  0x14, 0x4d, 0x4d, 0xbd, 0x0c, 0x3d, 0x0c, 0xbe, 0x1c, 0x74, 0x0e, 0xbd,
  0x14, 0x1f, 0xfd, 0xbd, 0x01, 0x36, 0x75, 0x3e, 0xef, 0xa2, 0x35, 0xbe,
  0x79, 0xb3, 0x1a, 0xbe, 0xf2, 0x3b, 0x6c, 0x3d, 0x2c, 0xb4, 0x64, 0x3e,
  0x8e, 0x17, 0x14, 0x3e, 0x71, 0x1e, 0xb9, 0xbc, 0x78, 0x8b, 0x2a, 0xbe,
  0x25, 0x1f, 0x20, 0x3d, 0x3c, 0x82, 0x02, 0xbd, 0x6f, 0x0b, 0x29, 0xbe,
  0xc6, 0xa7, 0x5d, 0x3e, 0x79, 0x38, 0x8a, 0x3e, 0xa9, 0x99, 0xc5, 0x3d,
  0x08, 0x48, 0x41, 0xbd, 0x8d, 0x19, 0x9c, 0xbd, 0xa3, 0x45, 0x5a, 0xbd,
  0x53, 0x75, 0xe4, 0xbc, 0x97, 0xe7, 0xbd, 0x3d, 0x50, 0xeb, 0x29, 0x3e,
  0xd5, 0x30, 0x0d, 0x3e, 0xb3, 0xbe, 0x1d, 0xbe, 0x43, 0x2b, 0x33, 0xbe,
  0x9c, 0x02, 0x5c, 0xbc, 0x7c, 0xb1, 0x55, 0x3c, 0x30, 0xaa, 0x3f, 0xbe,
  0x0c, 0xdf, 0xe0, 0x3d, 0x18, 0xf9, 0x64, 0x3e, 0x9b, 0x42, 0x7a, 0x3d,
  0x00, 0xac, 0xc3, 0x3d, 0x41, 0xaf, 0x42, 0xbe, 0x9c, 0xc3, 0x9e, 0xbd,
  0x89, 0x91, 0x02, 0x3e, 0x97, 0xe3, 0xa5, 0xbb, 0xea, 0xb2, 0x70, 0xbc,
  0x99, 0x2b, 0xfe, 0xbc, 0xee, 0x96, 0xe6, 0xbd, 0x7a, 0x45, 0x25, 0xbd,
  0xd0, 0x6b, 0xfa, 0x3d, 0xe4, 0xce, 0x77, 0xbe, 0xbc, 0x37, 0x12, 0xbe,
  0x63, 0x7d, 0xec, 0xbd, 0xc8, 0x0a, 0x52, 0xbe, 0xcd, 0xbf, 0x76, 0x3d,
  0x58, 0x62, 0x1d, 0xbe, 0x49, 0x43, 0x48, 0xbd, 0x4c, 0x2c, 0x7e, 0xbe,
  0x77, 0xc7, 0x4c, 0xbd, 0xcc, 0x4c, 0xdd, 0xbd, 0x02, 0xc5, 0xb9, 0x3e,
  0x70, 0xbe, 0x9c, 0x3c, 0x30, 0x45, 0x5a, 0x3d, 0xeb, 0xa1, 0x5a, 0xbe,
  0xb8, 0xf4, 0xbd, 0xbd, 0xfc, 0xf7, 0xa5, 0xbd, 0x4e, 0x0d, 0x08, 0x3d,
  0xdc, 0xc3, 0x30, 0xbe, 0x2f, 0xd5, 0x2f, 0xbe, 0x93, 0x6b, 0x18, 0x3e,
  0x82, 0x82, 0xfe, 0x3d, 0xfb, 0x0d, 0x20, 0x3e, 0xac, 0x2b, 0x96, 0xbe,
  0x5a, 0x34, 0xba, 0xbd, 0x39, 0xf5, 0x95, 0xbe, 0x12, 0x31, 0x00, 0xbc,
  0x8d, 0xb8, 0x15, 0xbe, 0x37, 0x5c, 0xd3, 0xbc, 0x59, 0xd3, 0x6b, 0xbe,
  0xe8, 0x68, 0xff, 0x3d, 0xe3, 0x19, 0xde, 0x3d, 0x0f, 0xb2, 0x76, 0xbe,
  0x34, 0x0e, 0x16, 0xbe, 0x90, 0x8d, 0x07, 0x3e, 0x42, 0x1e, 0xc5, 0xbd,
  0x36, 0xcf, 0x8d, 0x3e, 0x7e, 0x80, 0xd1, 0x3c, 0x2a, 0x9e, 0x69, 0x3d,
  0x30, 0x16, 0x8f, 0x3d, 0x8b, 0x43, 0xd3, 0xbd, 0x6d, 0x6b, 0x1a, 0x3d,
  0xa7, 0x32, 0xbc, 0x3b, 0x53, 0xc5, 0xe1, 0xbe, 0xb5, 0x0e, 0x86, 0xbd,
  0x00, 0x04, 0x2b, 0x3e, 0x67, 0x62, 0xba, 0xbd, 0x89, 0xed, 0x1a, 0xbe,
  0xf9, 0x95, 0x5d, 0xbd, 0x25, 0xb8, 0x36, 0xbd, 0x1d, 0x3e, 0x38, 0x3d,
  0xf3, 0xa9, 0xa5, 0xbe, 0x5b, 0xc7, 0xf2, 0x3c, 0x7e, 0x5d, 0x44, 0xbc,
  0xa2, 0xcd, 0x4a, 0xbd, 0x5a, 0x96, 0x28, 0x3d, 0x53, 0xd9, 0xb8, 0xbd,
  0x2b, 0x8e, 0x31, 0x3e, 0xfa, 0x36, 0x15, 0x3e, 0x1a, 0xd9, 0xcf, 0xbe,
  0xd0, 0xcd, 0x27, 0x3e, 0x1a, 0x1f, 0x90, 0x3e, 0x38, 0x1e, 0x32, 0x3e,
  0xb8, 0x85, 0x33, 0x3d, 0x7b, 0x12, 0x16, 0xbe, 0xd7, 0x4d, 0x59, 0x3d,
  0xa4, 0x42, 0xf2, 0xbd, 0xc6, 0x93, 0x27, 0x3b, 0x82, 0xea, 0x49, 0xbe,
  0xdf, 0xb5, 0x11, 0xbe, 0x89, 0xde, 0x9f, 0xbd, 0xf2, 0x32, 0x32, 0xbe,
  0x11, 0xa1, 0x50, 0xbd, 0x9b, 0x4d, 0x1b, 0xbe, 0x1b, 0xc7, 0xe0, 0x3c,
  0x69, 0x6c, 0x8c, 0xbe, 0xab, 0x15, 0xf8, 0x3b, 0x39, 0xb2, 0x06, 0x3e,
  0x39, 0x43, 0x88, 0xbe, 0x1d, 0xdf, 0x8d, 0xbe, 0x99, 0xad, 0x15, 0x3e,
  0xd4, 0x94, 0x82, 0xbd, 0x29, 0xf9, 0x1b, 0xbc, 0xa1, 0x6d, 0x57, 0xbe,
  0xc0, 0xff, 0x6c, 0xbe, 0xae, 0xfd, 0x65, 0x3e, 0xac, 0x90, 0x0b, 0x3e,
  0xc8, 0xf2, 0x53, 0xbe, 0xcd, 0xe8, 0x66, 0xbe, 0x34, 0x9d, 0x74, 0xbe,
  0x75, 0x65, 0x2c, 0xbe, 0xa3, 0xde, 0x8e, 0xbe, 0xf1, 0xe1, 0xe2, 0xbd,
  0x65, 0xaa, 0x1e, 0x3d, 0x33, 0x9e, 0x59, 0x39, 0xce, 0x0c, 0x26, 0xbe,
  0xfd, 0x6c, 0x4f, 0x3d, 0xbb, 0xb6, 0x00, 0xbe, 0x2e, 0xf2, 0x65, 0x3e,
  0xc6, 0xd7, 0xe8, 0xbe, 0x5e, 0x94, 0xd1, 0x3c, 0x49, 0x79, 0x6d, 0x3e,
  0xae, 0x37, 0xd6, 0xbd, 0x12, 0xec, 0x6f, 0xbd, 0x2c, 0xce, 0xf4, 0x3d,
  0x34, 0x0e, 0x08, 0x3e, 0x8d, 0xad, 0x36, 0xbe, 0x65, 0x78, 0x02, 0xbf,
  0x93, 0x68, 0x46, 0x3e, 0x7b, 0xf7, 0x9b, 0x3e, 0x4c, 0x0d, 0x07, 0xbe,
  0xe9, 0x61, 0xac, 0x3d, 0x67, 0xbe, 0x58, 0xbe, 0x1e, 0x5b, 0x6d, 0xbe,
  0xcb, 0x4d, 0xd3, 0x3c, 0xfa, 0xbe, 0x27, 0xbe, 0x34, 0x29, 0xd5, 0x3d,
  0x2d, 0xa9, 0x99, 0x3e, 0xa5, 0x15, 0x1b, 0x3e, 0x92, 0x6c, 0xfc, 0x3d,
  0x2d, 0x2c, 0x60, 0xbd, 0xc6, 0x1a, 0x18, 0xbe, 0x8d, 0x51, 0x26, 0xbe,
  0x7a, 0xdc, 0xaa, 0xbe, 0xd5, 0x47, 0x5c, 0x3e, 0xed, 0x71, 0x61, 0x3d,
  0xf3, 0x15, 0xc4, 0x3d, 0xe9, 0xd6, 0xe0, 0xbd, 0xb8, 0x11, 0x1a, 0x3e,
  0xc8, 0x06, 0x9a, 0xbd, 0x26, 0xde, 0xff, 0xff, 0x10, 0x00, 0x00, 0x00,
  0x0a, 0x00, 0x00, 0x00, 0x1c, 0x00, 0x00, 0x00, 0x38, 0x00, 0x00, 0x00,
  0x04, 0x00, 0x00, 0x00, 0x10, 0x00, 0x00, 0x00, 0x04, 0x00, 0x00, 0x00,
  0x01, 0x00, 0x00, 0x00, 0x08, 0x00, 0x00, 0x00, 0x1a, 0x00, 0x00, 0x00,
  0x73, 0x65, 0x71, 0x75, 0x65, 0x6e, 0x74, 0x69, 0x61, 0x6c, 0x2f, 0x63,
  0x6f, 0x6e, 0x76, 0x32, 0x64, 0x5f, 0x31, 0x2f, 0x43, 0x6f, 0x6e, 0x76,
  0x32, 0x44, 0x00, 0x00, 0x9c, 0xdd, 0xff, 0xff, 0xa6, 0xde, 0xff, 0xff,
  0x04, 0x00, 0x00, 0x00, 0x80, 0x01, 0x00, 0x00, 0x51, 0xb8, 0x43, 0x3e,
  0x42, 0x2d, 0x05, 0x3e, 0x96, 0x85, 0x78, 0x3e, 0xe1, 0xbd, 0x38, 0x3e,
  0xec, 0x0d, 0x70, 0xbc, 0x45, 0x42, 0x6c, 0x3e, 0x56, 0x1d, 0xaa, 0x3b,
  0xc6, 0xab, 0x50, 0xbe, 0x5d, 0x73, 0xa2, 0x3c, 0xb9, 0x3e, 0x3f, 0x3e,
  0x56, 0x01, 0xe4, 0xbc, 0x2b, 0x32, 0x5b, 0xbd, 0x1b, 0xd9, 0x01, 0xbe,
  0x62, 0xb8, 0xec, 0x3d, 0x0b, 0x08, 0x95, 0xbd, 0xc6, 0xfc, 0x3f, 0x3d,
  0xda, 0x94, 0x0d, 0x3e, 0x03, 0x33, 0xb2, 0xbe, 0xf3, 0x17, 0x51, 0xbe,
  0x27, 0x1e, 0x59, 0xbd, 0xcd, 0x67, 0xc1, 0xbe, 0xcc, 0xe7, 0x93, 0xbe,
  0xa5, 0xc7, 0x16, 0x3d, 0x0c, 0xbb, 0x3c, 0xbe, 0xc3, 0xfc, 0x44, 0x3d,
  0xd0, 0xb6, 0x34, 0x3d, 0xf4, 0x7b, 0x68, 0x3d, 0x8e, 0xfb, 0x30, 0x3d,
  0xd0, 0xc5, 0x05, 0xbd, 0x66, 0x2c, 0x43, 0xbe, 0x81, 0x72, 0x1d, 0xbe,
  0xfe, 0xa5, 0xca, 0x3d, 0x2c, 0x74, 0x3a, 0x3e, 0xee, 0xd2, 0x92, 0xbe,
  0xf5, 0xff, 0x19, 0xbc, 0xf4, 0xc9, 0xe6, 0x3d, 0xcb, 0x4e, 0x1c, 0x3e,
  0x87, 0xc7, 0x08, 0x3d, 0x00, 0x6e, 0x89, 0xbd, 0x28, 0x0b, 0xb5, 0x3e,
  0xdf, 0xa3, 0x1c, 0x3e, 0xfd, 0x33, 0x43, 0xbe, 0xfa, 0x05, 0xbf, 0x3e,
  0xe7, 0xaa, 0x81, 0xbe, 0x79, 0x49, 0x47, 0x3e, 0x02, 0x46, 0xc0, 0x3e,
  0xe7, 0x4b, 0x66, 0xbd, 0x2c, 0xe7, 0x3d, 0xbe, 0xbc, 0x6c, 0x94, 0x3c,
  0x1d, 0xe1, 0x2b, 0x3d, 0x14, 0xdf, 0xc7, 0x3d, 0x0d, 0x01, 0x2b, 0x3e,
  0x39, 0x4c, 0x36, 0xbc, 0x1b, 0x66, 0x0c, 0x3d, 0xa2, 0x73, 0x16, 0xbe,
  0x10, 0x75, 0xb6, 0xbd, 0xb6, 0xec, 0xc7, 0xbd, 0xa2, 0x08, 0xa8, 0xbc,
  0xda, 0xc7, 0xcb, 0xbd, 0x4f, 0x92, 0x14, 0xbe, 0x11, 0x75, 0x94, 0x3c,
  0xea, 0xf1, 0xd0, 0xbd, 0xa9, 0x1d, 0x2a, 0x3e, 0x7f, 0x70, 0x40, 0x3e,
  0xe6, 0x34, 0x05, 0xbe, 0xbf, 0x85, 0x37, 0xbe, 0xbb, 0x86, 0x39, 0x3d,
  0x8a, 0x8e, 0xf3, 0x3d, 0xe5, 0xf3, 0x02, 0xbc, 0x4f, 0xac, 0x91, 0x3d,
  0xfe, 0x2f, 0x31, 0x3e, 0x3d, 0xac, 0x3a, 0xbe, 0x1b, 0x07, 0xb7, 0x3d,
  0x96, 0xe1, 0x57, 0x3d, 0xce, 0x6a, 0x27, 0x3e, 0x5b, 0xcf, 0xdd, 0x3d,
  0xa3, 0x8c, 0x65, 0xbd, 0x8e, 0x79, 0x23, 0x3e, 0x69, 0x3c, 0x7a, 0x3e,
  0x94, 0x09, 0x8c, 0xbd, 0xb0, 0x27, 0x12, 0x3e, 0x8e, 0x22, 0x48, 0x3e,
  0x6d, 0xe9, 0x0d, 0xbe, 0x54, 0x77, 0x60, 0xbd, 0x90, 0x85, 0x31, 0x3e,
  0x01, 0x8b, 0xdc, 0xbd, 0x78, 0xc4, 0x87, 0x3e, 0x30, 0x6a, 0x71, 0x3d,
  0x7b, 0x29, 0xcb, 0x3c, 0x35, 0x98, 0xa8, 0x3c, 0xb3, 0x2c, 0x35, 0xbd,
  0x94, 0x45, 0x26, 0x3e, 0x8f, 0xfb, 0x1a, 0xbe, 0x0e, 0xe6, 0xa3, 0x3e,
  0x6a, 0xef, 0x3c, 0xbe, 0x26, 0x23, 0x86, 0x3e, 0xfe, 0xdf, 0xff, 0xff,
  0x10, 0x00, 0x00, 0x00, 0x09, 0x00, 0x00, 0x00, 0x1c, 0x00, 0x00, 0x00,
  0x38, 0x00, 0x00, 0x00, 0x04, 0x00, 0x00, 0x00, 0x08, 0x00, 0x00, 0x00,
  0x04, 0x00, 0x00, 0x00, 0x03, 0x00, 0x00, 0x00, 0x01, 0x00, 0x00, 0x00,
  0x18, 0x00, 0x00, 0x00, 0x73, 0x65, 0x71, 0x75, 0x65, 0x6e, 0x74, 0x69,
  0x61, 0x6c, 0x2f, 0x63, 0x6f, 0x6e, 0x76, 0x32, 0x64, 0x2f, 0x43, 0x6f,
  0x6e, 0x76, 0x32, 0x44, 0x00, 0x00, 0x00, 0x00, 0x74, 0xdf, 0xff, 0xff,
  0x7e, 0xe0, 0xff, 0xff, 0x04, 0x00, 0x00, 0x00, 0xc0, 0x00, 0x00, 0x00,
  0xf2, 0xfc, 0x97, 0xbe, 0xd1, 0x73, 0x99, 0xbe, 0xfe, 0xd8, 0xfc, 0x3e,
  0x3a, 0xac, 0x16, 0x3e, 0xc2, 0xc9, 0xd6, 0x3e, 0x6f, 0x51, 0xa7, 0xbe,
  0xcc, 0xb1, 0xef, 0xbd, 0x2b, 0x60, 0xc2, 0x3e, 0x50, 0x52, 0x4b, 0xbe,
  0x64, 0x1e, 0xd4, 0x3e, 0x20, 0x4f, 0xc8, 0x3c, 0x62, 0xb3, 0x58, 0x3e,
  0x98, 0x32, 0x48, 0x3d, 0xfe, 0x30, 0x8d, 0xbe, 0x11, 0x62, 0x3a, 0x3d,
  0x7d, 0xc5, 0xa1, 0xbe, 0x45, 0x7b, 0x39, 0xbd, 0x8f, 0xfd, 0x00, 0xbf,
  0x4b, 0x60, 0x39, 0xbe, 0x06, 0x19, 0xb2, 0x3d, 0x06, 0xc4, 0x20, 0xbe,
  0xfc, 0x3a, 0xce, 0x3e, 0x52, 0x07, 0x8d, 0x3e, 0x54, 0x87, 0x1d, 0x3e,
  0x01, 0x98, 0xe1, 0xbe, 0x92, 0x54, 0xac, 0x3e, 0xd6, 0xf1, 0xe0, 0x3e,
  0x03, 0x11, 0xf4, 0x3e, 0xb4, 0x41, 0xf2, 0xbe, 0x04, 0x37, 0x95, 0x3c,
  0xb8, 0xdc, 0x44, 0x3e, 0x81, 0x65, 0x76, 0x3e, 0xc2, 0x17, 0xd4, 0x3e,
  0x8d, 0x86, 0xb9, 0xbe, 0x10, 0x76, 0xd1, 0x3e, 0x4d, 0x21, 0xce, 0xbe,
  0x16, 0xf1, 0xea, 0x3e, 0x7e, 0xfd, 0x81, 0x3e, 0xf3, 0x22, 0xd3, 0x3e,
  0xde, 0x5b, 0x01, 0x3f, 0xfc, 0xcb, 0xb0, 0xbe, 0x6b, 0x66, 0xa7, 0x3e,
  0x84, 0xab, 0x43, 0xbe, 0x43, 0x4d, 0x3d, 0x3d, 0x43, 0x83, 0xe0, 0x3e,
  0x8a, 0x9b, 0x76, 0xbd, 0x69, 0x06, 0x83, 0xbe, 0xff, 0xab, 0xb7, 0x3e,
  0x16, 0xe1, 0xff, 0xff, 0x10, 0x00, 0x00, 0x00, 0x08, 0x00, 0x00, 0x00,
  0x14, 0x00, 0x00, 0x00, 0x30, 0x00, 0x00, 0x00, 0x02, 0x00, 0x00, 0x00,
  0x03, 0x00, 0x00, 0x00, 0x10, 0x00, 0x00, 0x00, 0x19, 0x00, 0x00, 0x00,
  0x73, 0x65, 0x71, 0x75, 0x65, 0x6e, 0x74, 0x69, 0x61, 0x6c, 0x2f, 0x64,
  0x65, 0x6e, 0x73, 0x65, 0x5f, 0x31, 0x2f, 0x4d, 0x61, 0x74, 0x4d, 0x75,
  0x6c, 0x00, 0x00, 0x00, 0x84, 0xe0, 0xff, 0xff, 0x8e, 0xe1, 0xff, 0xff,
  0x04, 0x00, 0x00, 0x00, 0x00, 0x1c, 0x00, 0x00, 0xa5, 0x76, 0xe7, 0xbd,
  0x30, 0x2c, 0xf4, 0x3a, 0x13, 0xce, 0xdb, 0x3c, 0x14, 0x5d, 0xdb, 0xbd,
  0x91, 0x0f, 0x4e, 0x3d, 0x03, 0x87, 0x10, 0x3e, 0x2d, 0xde, 0xf5, 0xbd,
  0x31, 0x4d, 0x05, 0xbe, 0xb2, 0xb6, 0x28, 0x3d, 0x82, 0x71, 0x3f, 0x3d,
  0x65, 0x1a, 0x57, 0x3d, 0x48, 0x64, 0xbb, 0x3d, 0x71, 0xf5, 0x5b, 0xbe,
  0x3b, 0xf1, 0x39, 0xbe, 0x1e, 0x71, 0xd8, 0x3d, 0x48, 0xde, 0x94, 0x3d,
  0x8f, 0x72, 0xd2, 0x3d, 0x2f, 0x7c, 0xc6, 0xbd, 0x42, 0xd7, 0xa0, 0x3e,
  0x16, 0x2e, 0x08, 0xbe, 0x40, 0xb9, 0x0b, 0xbd, 0x76, 0xc0, 0x61, 0xbc,
  0x03, 0x9b, 0x41, 0xbc, 0xf6, 0xcb, 0x41, 0x3e, 0x8c, 0x6c, 0x7e, 0x3e,
  0xe7, 0xc1, 0x0d, 0xbe, 0x75, 0x5f, 0x28, 0x3d, 0xd5, 0x01, 0x58, 0x3d,
  0x36, 0xdb, 0xd1, 0x3d, 0x0c, 0x22, 0x29, 0xbe, 0x13, 0x77, 0xf6, 0x3d,
  0x44, 0xd5, 0xb1, 0x3d, 0x92, 0xaa, 0x65, 0xbd, 0x31, 0x71, 0x61, 0xbd,
  0xd9, 0xfd, 0x7a, 0x3e, 0x94, 0x76, 0x76, 0x3d, 0xa3, 0x06, 0xf4, 0xbc,
  0x31, 0x51, 0xee, 0xbd, 0x21, 0x40, 0xe6, 0xbd, 0x24, 0x20, 0x3e, 0xbe,
  0x8b, 0xc3, 0xe9, 0x3d, 0x6d, 0x3c, 0xff, 0xbd, 0xbd, 0xa2, 0xc0, 0x3b,
  0x93, 0x97, 0x90, 0xbd, 0xbb, 0x5f, 0x40, 0xbe, 0xd3, 0xd4, 0x17, 0xbe,
  0x97, 0x08, 0xae, 0xbd, 0x17, 0x5e, 0xdb, 0x3d, 0x52, 0xa9, 0x09, 0xbd,
  0xe9, 0x27, 0x29, 0x3e, 0xe7, 0xfd, 0x9d, 0xbc, 0xee, 0xba, 0xf5, 0x3d,
  0xf7, 0x14, 0x7d, 0xbe, 0xe6, 0x66, 0x9b, 0x3d, 0x2c, 0x9f, 0x09, 0xbd,
  0x8b, 0xa9, 0x8f, 0x3d, 0x45, 0x6b, 0x9e, 0x3d, 0xed, 0x6d, 0x8b, 0x3d,
  0xfe, 0xba, 0xf1, 0xbd, 0xa6, 0xa2, 0xa8, 0x3d, 0x93, 0x92, 0x5c, 0xbe,
  0xc1, 0x02, 0xe7, 0x3c, 0xdf, 0x32, 0x97, 0xbd, 0xd2, 0x7f, 0x41, 0xbe,
  0x87, 0xd8, 0x2c, 0xbd, 0x12, 0xcb, 0x6d, 0xbd, 0xa9, 0x3e, 0x6b, 0x3e,
  0x35, 0x77, 0xbe, 0xbd, 0x79, 0xf2, 0xf7, 0xbd, 0x70, 0x94, 0xa4, 0x3e,
  0xd0, 0x82, 0x9e, 0x3d, 0x07, 0x16, 0xd9, 0xbd, 0x4a, 0xf2, 0x55, 0x3e,
  0x3b, 0xb7, 0x41, 0x3d, 0xc4, 0x80, 0x81, 0xbd, 0x51, 0xcd, 0x81, 0xbe,
  0x7d, 0x5b, 0x2d, 0xbd, 0xb5, 0x35, 0x1b, 0xbd, 0x12, 0x7a, 0xa5, 0x3d,
  0x74, 0x76, 0x47, 0xbe, 0xff, 0x04, 0xcb, 0xbc, 0x15, 0x75, 0x0d, 0xbe,
  0x07, 0xc2, 0xd1, 0x3d, 0x79, 0xc9, 0xf1, 0x3c, 0xaa, 0x3d, 0xe4, 0xbc,
  0xff, 0xc2, 0x0c, 0x3c, 0x1c, 0xa6, 0xfc, 0x3d, 0x35, 0x95, 0x27, 0xbe,
  0xe5, 0xfe, 0xef, 0x3d, 0x87, 0xd4, 0xbc, 0x3d, 0xcf, 0xcc, 0x00, 0xbe,
  0x8c, 0x16, 0x30, 0x3d, 0x6d, 0x8b, 0x93, 0x3d, 0x67, 0x2a, 0x89, 0xbd,
  0xff, 0xb6, 0x0e, 0xbe, 0x00, 0x37, 0x5a, 0xbe, 0x87, 0x66, 0xf6, 0x3a,
  0x5e, 0x39, 0xaf, 0xbd, 0x3e, 0x0a, 0x00, 0xbd, 0x27, 0x9d, 0x2c, 0x3d,
  0x92, 0xb8, 0xa6, 0x3c, 0xbb, 0x38, 0x00, 0x3c, 0x13, 0x21, 0xc6, 0x3d,
  0xd8, 0xf8, 0x06, 0xbe, 0xdb, 0x77, 0x7b, 0x3e, 0xcc, 0xf3, 0x8e, 0xbe,
  0xa8, 0x67, 0x20, 0x3e, 0xff, 0xdd, 0x61, 0xbd, 0xd1, 0x49, 0x54, 0xbe,
  0xc6, 0x52, 0x0f, 0x3c, 0x92, 0x0d, 0x07, 0x3e, 0xf9, 0xde, 0xa8, 0xbe,
  0xbf, 0x62, 0x89, 0xbc, 0x35, 0x8e, 0x15, 0xbc, 0xa7, 0x50, 0x3b, 0xbe,
  0xa2, 0x4c, 0xa4, 0xbd, 0xea, 0xdb, 0x35, 0xbc, 0xb9, 0x01, 0x9a, 0xbd,
  0x72, 0xe9, 0x19, 0x3d, 0x07, 0x18, 0x8b, 0xbb, 0x3c, 0x41, 0x1c, 0xbd,
  0x61, 0x85, 0x0c, 0xbd, 0xa7, 0x69, 0x4f, 0x3e, 0x96, 0xa1, 0xc7, 0x3d,
  0xc3, 0xd0, 0x0c, 0x3e, 0x39, 0xbb, 0xaa, 0x3d, 0xb3, 0x90, 0xcd, 0x3e,
  0x28, 0x12, 0x87, 0x3e, 0x06, 0x9c, 0x6a, 0xbe, 0x61, 0x82, 0x20, 0x3e,
  0x54, 0xe9, 0x15, 0xbe, 0x69, 0xce, 0xbb, 0x3d, 0x87, 0x39, 0x89, 0xbe,
  0xf6, 0xf0, 0xec, 0xbd, 0x70, 0x02, 0x55, 0x3d, 0x9a, 0xb7, 0x88, 0xbd,
  0x98, 0x7c, 0xf2, 0xbd, 0xaa, 0xc9, 0x42, 0x3d, 0xd7, 0x8a, 0x3a, 0xbe,
  0xd3, 0xbc, 0x0f, 0x3e, 0xa1, 0x5d, 0x97, 0xbd, 0x7f, 0xbc, 0x9a, 0xbd,
  0x6c, 0xe5, 0xf4, 0x3e, 0x73, 0xa9, 0x92, 0x3e, 0x39, 0xa3, 0x85, 0x3c,
  0x18, 0x2d, 0xbe, 0x3d, 0xbf, 0x4b, 0x92, 0x3a, 0x7a, 0x25, 0x35, 0x3e,
  0x36, 0xbe, 0x0b, 0xbe, 0xa8, 0x01, 0x19, 0xbe, 0x7a, 0xe3, 0x7b, 0x3d,
  0x18, 0x90, 0x14, 0x3e, 0xe3, 0xba, 0x4c, 0xbe, 0xfd, 0xb6, 0x6a, 0x3e,
  0x31, 0x71, 0x65, 0xbe, 0x40, 0xb8, 0x0d, 0xbd, 0x38, 0xf7, 0xa1, 0x3d,
  0x61, 0x43, 0x28, 0xbe, 0xed, 0x20, 0x6f, 0x3e, 0x3c, 0x7b, 0x6c, 0x3e,
  0xad, 0xe7, 0x0c, 0xbe, 0xf2, 0xd6, 0xc9, 0x3d, 0xfa, 0xc7, 0x36, 0xbe,
  0xbe, 0x00, 0x71, 0xbe, 0x88, 0x70, 0x06, 0xbd, 0xa7, 0xae, 0x75, 0xbd,
  0xc7, 0x87, 0xa4, 0xbd, 0x07, 0xec, 0x86, 0xbb, 0xbe, 0xa4, 0x52, 0xbe,
  0xce, 0xb6, 0x77, 0xbc, 0x05, 0xf3, 0xb0, 0x3d, 0xa5, 0x57, 0x56, 0x3d,
  0x56, 0xfe, 0x3b, 0x3e, 0x65, 0xb1, 0x06, 0x3d, 0x6b, 0x23, 0xf9, 0x3d,
  0xc5, 0x3d, 0x7b, 0x3d, 0xd4, 0x3b, 0x2f, 0x3c, 0xd8, 0x55, 0xb9, 0x3c,
  0x75, 0x86, 0x0f, 0xbe, 0x2a, 0x73, 0x38, 0xbe, 0xc6, 0x19, 0x1a, 0xbd,
  0xa5, 0xfb, 0xcb, 0x3d, 0x64, 0x5d, 0x2c, 0x3e, 0xb1, 0x3a, 0x70, 0x3d,
  0xac, 0x05, 0x67, 0xbe, 0x43, 0x41, 0x09, 0xbd, 0x36, 0x53, 0x7c, 0xbd,
  0x23, 0x87, 0xe0, 0xbd, 0x1b, 0xe1, 0x7c, 0x3e, 0x87, 0x9f, 0x01, 0x3e,
  0xcc, 0x75, 0xe3, 0x3e, 0xb8, 0xee, 0xf6, 0x3c, 0x12, 0xac, 0x38, 0xbd,
  0x17, 0xfb, 0x6a, 0xbe, 0xa4, 0x0e, 0x2b, 0xbe, 0xc7, 0xda, 0xc0, 0xbd,
  0x85, 0x53, 0xf0, 0xbd, 0xad, 0x85, 0x85, 0x3d, 0x17, 0xc4, 0x5a, 0xbe,
  0x03, 0xa3, 0x21, 0xbe, 0xeb, 0x5a, 0x4f, 0xbd, 0xef, 0xc6, 0x69, 0x3c,
  0x14, 0x0f, 0xbc, 0x3d, 0xd0, 0xd7, 0x61, 0xbd, 0x16, 0xdd, 0x94, 0xbd,
  0x9d, 0x65, 0xd4, 0x3c, 0x9b, 0x4b, 0xaa, 0x3e, 0xf6, 0xb2, 0x03, 0x3e,
  0x38, 0xbe, 0x5b, 0xbe, 0xc2, 0x53, 0x7b, 0x3d, 0x0d, 0x0f, 0x13, 0x3d,
  0xb7, 0x47, 0x9d, 0x3d, 0xf1, 0x33, 0x75, 0xbe, 0x1f, 0xe2, 0x24, 0xbe,
  0xbb, 0xf1, 0x19, 0x3e, 0xe6, 0xe4, 0xe0, 0xbd, 0x76, 0xdc, 0xe5, 0xbd,
  0xc9, 0x63, 0x22, 0x3e, 0x99, 0x76, 0x4e, 0xb9, 0xa9, 0x18, 0xce, 0xbd,
  0x89, 0xd3, 0xf9, 0x3d, 0x0c, 0x32, 0x2b, 0x3d, 0x27, 0xcb, 0xeb, 0x3d,
  0x16, 0x3f, 0x03, 0xbd, 0x3d, 0xf4, 0x53, 0x3d, 0x76, 0x2c, 0xd6, 0x3d,
  0xdb, 0x36, 0x12, 0xbd, 0x2b, 0x01, 0x20, 0xbe, 0x04, 0xfa, 0x34, 0xbe,
  0xc6, 0x53, 0x9c, 0xbd, 0x81, 0xe0, 0x4a, 0xbe, 0xec, 0x7f, 0x9d, 0x3d,
  0x7a, 0xdd, 0x9e, 0x3d, 0x68, 0xcd, 0x8a, 0xbe, 0x87, 0x19, 0x51, 0x3e,
  0xb8, 0x64, 0x25, 0xbe, 0x22, 0x5d, 0x58, 0xbd, 0x4f, 0xb9, 0xee, 0xbc,
  0x61, 0x34, 0x25, 0xbc, 0xbf, 0x39, 0xe5, 0xbd, 0xb5, 0x81, 0x8e, 0x3d,
  0x6b, 0x8c, 0xaa, 0x3d, 0xde, 0x2b, 0x71, 0xbd, 0x64, 0x20, 0x03, 0xbd,
  0x24, 0xe0, 0x90, 0x3d, 0x37, 0xde, 0x60, 0x3d, 0xcc, 0x36, 0x94, 0xbd,
  0x54, 0xb4, 0x9d, 0xbd, 0x00, 0x4b, 0xa7, 0xbd, 0x78, 0x99, 0x3f, 0xbe,
  0xf8, 0xf8, 0x11, 0xbe, 0x8f, 0xa4, 0x09, 0xbe, 0x52, 0x93, 0xbf, 0xbd,
  0x08, 0xe6, 0x43, 0xbe, 0x55, 0x7a, 0x53, 0x3e, 0x77, 0xca, 0xeb, 0x3d,
  0x16, 0x27, 0x93, 0x3d, 0x39, 0x78, 0x1d, 0x3e, 0x24, 0x70, 0x98, 0x3d,
  0xbd, 0xcb, 0x43, 0xbd, 0xbf, 0x8c, 0xd1, 0x3d, 0x09, 0x68, 0xe0, 0x3d,
  0x4b, 0xc5, 0x62, 0xbe, 0x3c, 0xdb, 0xa8, 0xbc, 0x19, 0x5f, 0x00, 0xbe,
  0x0a, 0x0a, 0x68, 0xbe, 0x58, 0x9a, 0xba, 0xbc, 0xee, 0x4c, 0x5b, 0xbe,
  0x63, 0xca, 0x17, 0x3e, 0x08, 0x2c, 0x54, 0x3d, 0x00, 0x8a, 0x4a, 0xbc,
  0xc6, 0xa0, 0xd7, 0x3c, 0x5f, 0xb4, 0xc1, 0x3d, 0x2a, 0xd7, 0x3f, 0x3d,
  0x4d, 0xb7, 0x09, 0x3e, 0x37, 0xd4, 0xfe, 0xbb, 0x74, 0x26, 0x57, 0x3d,
  0x9b, 0xf9, 0xfe, 0x3d, 0xfe, 0x6f, 0x09, 0x3d, 0xe9, 0x9a, 0x9e, 0xbd,
  0xf1, 0xdb, 0x07, 0xbd, 0xa1, 0x4d, 0xa7, 0xbc, 0xdf, 0xbd, 0xff, 0x3d,
  0x59, 0xa0, 0xf1, 0x3b, 0x58, 0x72, 0x2b, 0xbe, 0x44, 0x11, 0x78, 0xbe,
  0x5e, 0xd9, 0xca, 0x3d, 0x74, 0xb8, 0xc8, 0x3d, 0x50, 0x50, 0x86, 0xbe,
  0x0b, 0x18, 0x26, 0xbd, 0x87, 0x13, 0x44, 0xbe, 0x2f, 0xe9, 0xac, 0x3d,
  0x42, 0xdf, 0xff, 0x3c, 0x3f, 0x8e, 0x88, 0xbd, 0x4b, 0xa7, 0xbb, 0xbb,
  0x1a, 0x42, 0x34, 0x3e, 0xee, 0x09, 0xdc, 0xbd, 0x03, 0xe6, 0xc1, 0xbd,
  0xba, 0xbb, 0x2e, 0xbe, 0x64, 0xe9, 0x09, 0xbe, 0x44, 0x3c, 0x04, 0xbe,
  0xcb, 0x79, 0x0a, 0xbe, 0xee, 0xcc, 0x31, 0xbe, 0x22, 0x63, 0xcf, 0xbd,
  0x51, 0xfc, 0xdf, 0x3d, 0xf6, 0x2f, 0x2c, 0xbe, 0xd9, 0x4d, 0x15, 0x3e,
  0xb5, 0x8b, 0x2f, 0xbd, 0x1d, 0x70, 0x21, 0xbe, 0xc9, 0x7d, 0xe7, 0x3d,
  0x6b, 0x02, 0x9e, 0xbd, 0x55, 0xa1, 0x4e, 0xbe, 0x74, 0xf9, 0x02, 0xbe,
  0x0d, 0x3e, 0x63, 0xbe, 0x92, 0x51, 0x26, 0x3e, 0x17, 0x87, 0xe1, 0x3c,
  0x6d, 0xce, 0x05, 0x3e, 0xcc, 0x35, 0x51, 0xbe, 0xbe, 0x2c, 0x32, 0xbe,
  0x8d, 0x9e, 0xa3, 0x3d, 0xc0, 0xb5, 0xc3, 0xbd, 0xad, 0x21, 0x8c, 0x3d,
  0x46, 0x63, 0xbf, 0xbd, 0x37, 0x85, 0x54, 0xbe, 0xf2, 0xf1, 0x49, 0xbd,
  0x45, 0x3f, 0x11, 0xbe, 0x42, 0x95, 0x42, 0x3e, 0xa8, 0x9f, 0xd0, 0x3c,
  0xb9, 0xe3, 0x26, 0xbc, 0x33, 0x06, 0xa3, 0xbd, 0x38, 0x9e, 0x1e, 0xbd,
  0x1a, 0x55, 0x0a, 0x3e, 0x61, 0x6d, 0x38, 0xbe, 0xc7, 0xd6, 0xbc, 0x3b,
  0x10, 0x95, 0xa6, 0xbd, 0x47, 0x91, 0x38, 0x3d, 0xef, 0x6f, 0xa4, 0xbd,
  0x0d, 0xe2, 0x12, 0xbe, 0xfb, 0x04, 0x71, 0xbe, 0x0d, 0x4e, 0x2e, 0x3d,
  0x85, 0xa7, 0x60, 0xbe, 0xfe, 0x07, 0x45, 0xbe, 0xa0, 0x8b, 0x0a, 0xbe,
  0x70, 0x5c, 0xfc, 0xbc, 0x0a, 0xbb, 0x72, 0xbe, 0xd7, 0xe3, 0xb0, 0xbd,
  0x8c, 0xbd, 0x2d, 0x3e, 0xc2, 0xa2, 0xaf, 0x3c, 0xfd, 0xaa, 0x90, 0xbd,
  0x55, 0xa2, 0x62, 0xbb, 0x05, 0x8f, 0x57, 0x3e, 0xb7, 0x6f, 0x67, 0x3e,
  0xc1, 0x82, 0xb0, 0xbd, 0xd7, 0xd9, 0x09, 0x3e, 0x42, 0x52, 0xaf, 0x3c,
  0x2b, 0x9b, 0x8b, 0xbd, 0x5d, 0x5c, 0x9a, 0xbe, 0x3c, 0x8a, 0x21, 0xbe,
  0x12, 0x9c, 0x06, 0x3e, 0xd0, 0x3d, 0x08, 0x3e, 0x2a, 0x71, 0x85, 0xbe,
  0xb6, 0xcd, 0x88, 0x3e, 0x7d, 0x12, 0x4a, 0x3e, 0x6b, 0xdd, 0x5f, 0xbd,
  0x95, 0x5e, 0x1b, 0x3e, 0xa5, 0x74, 0x17, 0x3d, 0x54, 0x26, 0xb5, 0x3d,
  0xda, 0x5f, 0xbc, 0xbd, 0xae, 0xf0, 0x23, 0x3d, 0x76, 0xee, 0xcf, 0x3d,
  0xa4, 0x6c, 0xc6, 0xbd, 0x47, 0xa1, 0x7c, 0xbd, 0x00, 0x28, 0x4e, 0xbe,
  0x8c, 0xaf, 0x78, 0x3d, 0xd3, 0x0f, 0x5d, 0x3c, 0x52, 0x60, 0x36, 0x3d,
  0x7f, 0xab, 0x13, 0xbe, 0x4d, 0x10, 0x9c, 0x3d, 0xba, 0xa9, 0xbc, 0xbc,
  0x04, 0x8a, 0x0f, 0xbd, 0x63, 0xd5, 0x20, 0x3e, 0x1a, 0x03, 0xa8, 0xbd,
  0xbc, 0x9f, 0x3a, 0x3e, 0x6c, 0xa7, 0x27, 0x3e, 0xfe, 0x8a, 0x21, 0x3d,
  0xd0, 0x51, 0x3a, 0xbc, 0x55, 0xc4, 0x69, 0xbe, 0x90, 0x64, 0xc7, 0x3d,
  0xe6, 0xb8, 0x31, 0xbe, 0xf1, 0x33, 0x27, 0xbe, 0x0c, 0x4f, 0x31, 0x3d,
  0x9e, 0xaa, 0xaf, 0x3d, 0x5e, 0x8f, 0xf7, 0xbd, 0xdd, 0x1b, 0xa4, 0x3d,
  0x82, 0x58, 0x49, 0xbe, 0x96, 0xd3, 0x4e, 0x3d, 0x04, 0xef, 0x91, 0xbd,
  0xee, 0x6a, 0x83, 0xbd, 0x7b, 0xe1, 0x81, 0x3e, 0x13, 0xb1, 0x44, 0x3e,
  0xe0, 0xe1, 0xaa, 0xbd, 0x46, 0xd2, 0xea, 0x3c, 0x3b, 0x62, 0x4a, 0xbe,
  0x58, 0x5c, 0xa0, 0x3c, 0x6a, 0x47, 0xb0, 0xbe, 0x21, 0x87, 0x4b, 0x3d,
  0xd5, 0x19, 0x13, 0x3e, 0x5f, 0xea, 0x15, 0xbd, 0x6b, 0xb0, 0x9a, 0xbe,
  0x18, 0xaa, 0xff, 0x3d, 0x11, 0xca, 0xc8, 0x3d, 0xac, 0xae, 0x3d, 0xbe,
  0x7a, 0x82, 0x1a, 0x3e, 0x5e, 0x10, 0xd1, 0xbd, 0x37, 0x28, 0xf1, 0x3d,
  0xe1, 0xb5, 0x3a, 0x3d, 0xcf, 0x1d, 0x8b, 0xbe, 0x3e, 0xbd, 0x68, 0xbe,
  0x2f, 0x1c, 0xc3, 0xbd, 0x9c, 0xf9, 0xe9, 0xbd, 0x25, 0x64, 0xa7, 0xbe,
  0xbb, 0x79, 0xcf, 0x3d, 0xa9, 0x0f, 0x4e, 0x3d, 0xf8, 0x11, 0x78, 0xbd,
  0xe9, 0x11, 0x64, 0x3d, 0xf8, 0x85, 0x2a, 0x3e, 0xfc, 0x72, 0xf0, 0x39,
  0x19, 0xb4, 0x8b, 0x3d, 0x55, 0x3e, 0x74, 0xbd, 0x9d, 0xc4, 0x56, 0x3d,
  0xdc, 0xd3, 0x43, 0x3d, 0xc1, 0x53, 0xc2, 0xbc, 0x7d, 0x71, 0x99, 0xbe,
  0xae, 0xc4, 0x05, 0xbe, 0x87, 0xd2, 0xab, 0x3d, 0x1f, 0xe8, 0x9e, 0xbd,
  0x3c, 0x99, 0x0f, 0x3d, 0xe3, 0x52, 0xdd, 0x3d, 0x38, 0xf7, 0x32, 0xbe,
  0xc3, 0xa9, 0x6f, 0x3d, 0x9f, 0x06, 0x2c, 0xbc, 0x7f, 0xcd, 0x33, 0xbe,
  0x4a, 0x15, 0x40, 0xbe, 0x9c, 0x79, 0x8b, 0x3d, 0x83, 0xa6, 0x11, 0xbe,
  0xbe, 0xfc, 0xe5, 0x3d, 0x99, 0x2a, 0x06, 0xbd, 0xa7, 0xb2, 0x59, 0x3e,
  0x03, 0x3a, 0x5e, 0xbc, 0x1e, 0x93, 0x34, 0xbd, 0x83, 0x6e, 0x20, 0x3e,
  0x0b, 0xee, 0x8e, 0xbe, 0x07, 0xa4, 0x0b, 0x3d, 0x51, 0x38, 0x91, 0xbd,
  0xfb, 0x51, 0xb6, 0x3d, 0x0b, 0x47, 0x79, 0xbe, 0x34, 0x69, 0x12, 0x3d,
  0xdf, 0xe9, 0x5e, 0xbe, 0x18, 0x35, 0xcc, 0xbc, 0xc0, 0x4a, 0x41, 0xbe,
  0xbd, 0xce, 0x60, 0xbb, 0x2e, 0x83, 0x33, 0x3e, 0xb9, 0xc4, 0xb9, 0x3d,
  0x88, 0xd2, 0xac, 0x3d, 0x06, 0xdb, 0xd5, 0xbd, 0x80, 0x17, 0xf3, 0x3d,
  0x5f, 0xed, 0x67, 0x3e, 0x55, 0x9f, 0xac, 0xbe, 0x96, 0x84, 0x8d, 0xbd,
  0xbe, 0xa4, 0x6d, 0x3d, 0xdc, 0xbd, 0xcc, 0x3d, 0xe8, 0x97, 0x38, 0xbd,
  0x4e, 0x0a, 0xd3, 0x3d, 0xb6, 0x9e, 0x49, 0xbd, 0xd3, 0x46, 0xaa, 0xbd,
  0x2c, 0xb5, 0x44, 0xbd, 0x2d, 0x93, 0x73, 0xbd, 0x59, 0xc8, 0xa1, 0xbd,
  0x6f, 0xd3, 0x0f, 0xbe, 0xde, 0xa6, 0xdd, 0xbd, 0x44, 0x76, 0x76, 0x3d,
  0xbb, 0x1e, 0x69, 0xbd, 0x7d, 0x10, 0x4f, 0x3d, 0x1f, 0xc3, 0x77, 0xbe,
  0x95, 0x90, 0x6e, 0x3c, 0x7c, 0xf7, 0x3b, 0xbe, 0xb5, 0x2e, 0x42, 0x3e,
  0xd0, 0xa0, 0xa3, 0x3d, 0x99, 0x65, 0xf4, 0x3d, 0x15, 0xdc, 0xcc, 0xbd,
  0xe5, 0xd3, 0xf3, 0x3b, 0xc0, 0x2b, 0x0e, 0xbe, 0x49, 0x88, 0xcf, 0x3d,
  0x26, 0x6e, 0x0a, 0x3e, 0x9a, 0xc6, 0x29, 0x3e, 0x3b, 0x0a, 0xce, 0x3b,
  0xfd, 0x7b, 0xa9, 0x3d, 0x95, 0x68, 0xfa, 0xbd, 0x6f, 0x12, 0xe2, 0xbc,
  0x22, 0x0d, 0x84, 0x3d, 0xf5, 0xb3, 0x97, 0x3c, 0xdf, 0xbb, 0xfc, 0x3c,
  0x78, 0x56, 0xe4, 0xbb, 0xc0, 0xf8, 0x63, 0x39, 0x6a, 0x0e, 0x4c, 0xbe,
  0xcb, 0x4a, 0xfc, 0xbc, 0x86, 0x4f, 0x43, 0xbc, 0xd1, 0x6f, 0xad, 0xbe,
  0xf0, 0x1c, 0x35, 0x3e, 0x9a, 0x18, 0x6d, 0x3d, 0x20, 0xa0, 0x1a, 0x3e,
  0xff, 0xae, 0x4a, 0x3d, 0x88, 0x30, 0x66, 0x3b, 0x50, 0x09, 0xfd, 0xbd,
  0x3f, 0x37, 0xc1, 0x3d, 0x7f, 0x3e, 0x4f, 0x3d, 0x49, 0xbb, 0xc9, 0xbd,
  0x9e, 0xa9, 0x95, 0x3d, 0x9a, 0x20, 0x03, 0x3e, 0x42, 0x0f, 0x54, 0xbd,
  0x42, 0xf4, 0x2b, 0x3e, 0xd5, 0x57, 0x9c, 0xbd, 0x36, 0x21, 0xc1, 0xb9,
  0x1a, 0xcd, 0x1a, 0xbe, 0x65, 0x11, 0xdb, 0x3d, 0xad, 0x95, 0x33, 0xbe,
  0x3b, 0x21, 0x68, 0x3e, 0x45, 0x0a, 0x6d, 0xbe, 0x51, 0xa8, 0x61, 0x3d,
  0x54, 0x94, 0x41, 0xbe, 0x4f, 0xeb, 0x42, 0xbd, 0x2e, 0x91, 0xfb, 0xbd,
  0x38, 0x23, 0x64, 0xbe, 0x23, 0x2e, 0xf7, 0x3c, 0x28, 0xb1, 0x09, 0x3e,
  0x1b, 0x08, 0x27, 0x3e, 0x02, 0x79, 0x4a, 0xbe, 0x73, 0x96, 0x11, 0xbc,
  0xab, 0x71, 0xd2, 0x3d, 0x16, 0xa5, 0x1b, 0xbc, 0xc4, 0xbc, 0x9d, 0x3d,
  0x6c, 0xf1, 0x0e, 0x3c, 0x3b, 0x33, 0x2a, 0x3e, 0xcc, 0x9f, 0x94, 0xbe,
  0x14, 0x77, 0xbf, 0xbd, 0xfc, 0x52, 0x9d, 0xbc, 0xb1, 0x43, 0x80, 0xbd,
  0x96, 0x3b, 0x40, 0xbe, 0xd4, 0xf7, 0x20, 0x3b, 0xbd, 0x67, 0x82, 0xbd,
  0xa4, 0x4c, 0x8b, 0xbd, 0x32, 0x46, 0xcf, 0x3d, 0x83, 0xe3, 0xaa, 0x3d,
  0x20, 0x7f, 0xc7, 0xbd, 0x23, 0xa1, 0x30, 0xbe, 0x30, 0x8e, 0x96, 0xbd,
  0x00, 0xf1, 0x8a, 0xbd, 0xab, 0x0d, 0xef, 0x3c, 0x7d, 0x3a, 0x54, 0x3d,
  0x65, 0x4d, 0x61, 0xbe, 0x15, 0xbc, 0x37, 0xbe, 0x5a, 0x2d, 0xdd, 0x3c,
  0xd9, 0xd1, 0x41, 0xbe, 0x0b, 0xc6, 0x89, 0xbe, 0x3c, 0x07, 0x20, 0x3e,
  0xed, 0x03, 0x84, 0xbe, 0x7c, 0x62, 0x50, 0x3e, 0xd6, 0x30, 0x9e, 0xbd,
  0x2a, 0xbe, 0x65, 0xbd, 0xe8, 0xe8, 0x90, 0x3d, 0x8b, 0x5e, 0x3a, 0x3e,
  0xe1, 0x14, 0xb0, 0xbd, 0x2c, 0x80, 0x2c, 0x3e, 0x14, 0x3c, 0xa5, 0xbc,
  0x86, 0xd1, 0x5b, 0xbe, 0x8f, 0x31, 0x0f, 0xbe, 0xce, 0x75, 0xde, 0xbd,
  0xb2, 0xdc, 0xcd, 0xbd, 0x06, 0x36, 0xd4, 0x3d, 0x73, 0x28, 0x33, 0xbe,
  0x8f, 0x8c, 0xf6, 0xbd, 0x28, 0xf7, 0x83, 0xbe, 0x83, 0xa7, 0xb6, 0x3c,
  0x20, 0x7c, 0x1f, 0x3d, 0x25, 0xd4, 0xb5, 0x3c, 0x27, 0xb3, 0x7b, 0xbe,
  0xf0, 0xb6, 0xec, 0xbd, 0x05, 0xfa, 0x0a, 0xbe, 0x1c, 0xa7, 0x3d, 0xbd,
  0x72, 0xf4, 0x61, 0xbe, 0xbe, 0x09, 0x5c, 0xbe, 0x1b, 0x0e, 0xbc, 0x3d,
  0x34, 0x96, 0x97, 0xbc, 0x40, 0x10, 0x56, 0x3d, 0x8e, 0x59, 0xd2, 0x3d,
  0x4b, 0x4d, 0x05, 0x3d, 0xcb, 0xf9, 0x87, 0xbe, 0x6a, 0x25, 0x03, 0x3d,
  0xc9, 0x87, 0xda, 0x3d, 0xe4, 0x6e, 0x4d, 0xbd, 0x95, 0xb1, 0xb7, 0x3d,
  0x5f, 0x8b, 0x73, 0xbe, 0x3d, 0xb3, 0x54, 0x3e, 0x87, 0x03, 0x39, 0x3d,
  0xe3, 0x9a, 0x2a, 0xbe, 0xd9, 0xe8, 0x4a, 0x3d, 0x46, 0xf0, 0x75, 0x3c,
  0x5d, 0x6e, 0xa0, 0x3d, 0xb8, 0x47, 0x48, 0xbd, 0x3e, 0x00, 0x98, 0xbc,
  0x39, 0x93, 0x5f, 0x3d, 0xeb, 0x0e, 0x08, 0xbe, 0xe1, 0xdb, 0x74, 0x3c,
  0xcc, 0x21, 0x6e, 0xbe, 0xe3, 0xc9, 0x9f, 0xbd, 0x00, 0x56, 0xe0, 0x3d,
  0xaa, 0x7c, 0xab, 0xbd, 0x9c, 0x2d, 0x12, 0xbe, 0x8c, 0xb0, 0x01, 0xbe,
  0x4d, 0xb8, 0x52, 0xbe, 0x37, 0x50, 0x63, 0xbd, 0x6e, 0x79, 0xe7, 0xbd,
  0x16, 0x81, 0xe0, 0x3c, 0x6f, 0x24, 0xd6, 0x3d, 0x0d, 0xbb, 0x9e, 0xbb,
  0xdc, 0x44, 0x11, 0xbd, 0xc1, 0x9a, 0xee, 0xbd, 0xe5, 0x19, 0x15, 0xbe,
  0xad, 0x14, 0xfb, 0x3d, 0x34, 0xbf, 0x33, 0xbe, 0x94, 0x88, 0x17, 0xbe,
  0x9d, 0xd5, 0x4d, 0xbe, 0xf9, 0x58, 0x39, 0xbe, 0xe9, 0x90, 0x2c, 0xbe,
  0x6c, 0xa4, 0x30, 0xbe, 0x3a, 0xfa, 0x32, 0xbe, 0x0c, 0xa0, 0x03, 0xbe,
  0x02, 0xc0, 0xb1, 0x3d, 0xc5, 0xe7, 0x00, 0x3e, 0x61, 0xbf, 0x52, 0xbe,
  0x3f, 0xa5, 0xcb, 0xbb, 0x3e, 0x47, 0xf9, 0x3d, 0x49, 0x17, 0xa9, 0x3d,
  0xae, 0x17, 0x04, 0x3e, 0xb4, 0x46, 0x4a, 0xbe, 0x86, 0xbf, 0xdb, 0xbd,
  0xc0, 0x06, 0x0a, 0xbd, 0x95, 0x7e, 0x08, 0xbe, 0x32, 0x16, 0x89, 0xbe,
  0xff, 0x1b, 0x12, 0xbe, 0xaf, 0xf8, 0x35, 0xbe, 0x6d, 0xf4, 0xb0, 0x3c,
  0x5b, 0xef, 0x36, 0xbc, 0x6b, 0x3c, 0x57, 0xbe, 0x44, 0x1c, 0x8f, 0xbd,
  0xc1, 0x8c, 0x0a, 0x3e, 0xb9, 0xd7, 0xc3, 0xbc, 0xe5, 0xef, 0xab, 0xbd,
  0xf0, 0xb8, 0x87, 0xbe, 0x7f, 0xf2, 0xe6, 0xbd, 0x3d, 0x48, 0xde, 0xbd,
  0xc6, 0x7a, 0x81, 0xbe, 0x57, 0xde, 0x86, 0x3c, 0xdc, 0x1c, 0x9f, 0xbd,
  0xb1, 0x5f, 0xf3, 0xbd, 0x7a, 0xff, 0x38, 0x3d, 0x05, 0x5d, 0x2a, 0x3e,
  0x3b, 0xcd, 0x75, 0xbe, 0xdd, 0x7a, 0xd6, 0x3d, 0x93, 0xe2, 0x1e, 0xbe,
  0x0d, 0xcb, 0x1b, 0x3e, 0x95, 0x09, 0x1e, 0xbe, 0xb3, 0x61, 0xfd, 0x3d,
  0x28, 0xc5, 0x7d, 0xbe, 0x7f, 0x00, 0xa5, 0xbd, 0xb9, 0x9b, 0x0d, 0xbc,
  0x48, 0xce, 0xa4, 0xbe, 0xaa, 0x53, 0x81, 0xbc, 0xa2, 0x21, 0xf4, 0xbc,
  0x71, 0xe2, 0x34, 0xbd, 0xe8, 0xdf, 0x86, 0xbc, 0x9c, 0xee, 0x60, 0xbe,
  0xb2, 0xeb, 0x20, 0xbc, 0xde, 0x22, 0xc7, 0x3d, 0x4c, 0x6d, 0x6a, 0xbe,
  0x90, 0x38, 0xd2, 0x3d, 0x02, 0xd9, 0x01, 0xbe, 0x08, 0x2a, 0x21, 0x3d,
  0x7e, 0x81, 0x1f, 0xbd, 0xce, 0x26, 0x13, 0x3d, 0x96, 0x31, 0x98, 0x3d,
  0x63, 0xc6, 0xa5, 0x3d, 0xf7, 0x36, 0x0e, 0xbe, 0xba, 0xe6, 0xad, 0xbc,
  0x87, 0xd1, 0x3f, 0xbe, 0x9f, 0x0c, 0x1a, 0xbe, 0x91, 0x35, 0x5c, 0xbe,
  0x49, 0x12, 0xfb, 0xbc, 0x55, 0xd0, 0xba, 0x3d, 0x71, 0x1b, 0x13, 0x3e,
  0xc1, 0x1b, 0xa4, 0x3d, 0xdd, 0xa8, 0x42, 0xbe, 0xce, 0xcc, 0x34, 0x3e,
  0x16, 0xcd, 0x7d, 0xbe, 0x33, 0x42, 0xbe, 0x3d, 0x21, 0xce, 0x09, 0x3e,
  0xda, 0x77, 0x66, 0xbe, 0x03, 0xb1, 0xee, 0x3d, 0x0f, 0x72, 0x10, 0xbd,
  0xbd, 0x51, 0x8b, 0xbd, 0x7b, 0x7c, 0xe7, 0x3d, 0xc9, 0xc6, 0x51, 0xbe,
  0x03, 0x8f, 0xcd, 0x3d, 0xdf, 0xa7, 0x27, 0x3d, 0x4f, 0x12, 0x88, 0x3d,
  0x78, 0xa8, 0x64, 0xbe, 0x54, 0x8b, 0x1d, 0x3e, 0x4f, 0x44, 0xa7, 0x3a,
  0xc8, 0x5d, 0xbf, 0xbd, 0x53, 0x09, 0x82, 0x3d, 0xfe, 0x8d, 0x91, 0xbd,
  0xe4, 0x8d, 0x04, 0xbe, 0xba, 0x08, 0x10, 0xbe, 0x1f, 0x04, 0x8b, 0xbc,
  0x1d, 0x67, 0xb8, 0x3d, 0x7a, 0x28, 0xa0, 0xbd, 0x09, 0x7e, 0x14, 0x3e,
  0xaa, 0xe7, 0x81, 0x3d, 0x57, 0xad, 0x22, 0xbe, 0x61, 0x95, 0xe4, 0x3c,
  0x09, 0x25, 0xa7, 0xbc, 0xa5, 0xa7, 0x80, 0xbd, 0x86, 0x65, 0xd2, 0xbc,
  0xd9, 0x61, 0xa3, 0xbd, 0xfa, 0x47, 0x0f, 0xbe, 0xe0, 0x9e, 0x9a, 0x3c,
  0x17, 0x3f, 0x2c, 0x3d, 0x58, 0x35, 0x7d, 0xbe, 0x1e, 0x26, 0xb2, 0xbd,
  0xef, 0xf2, 0xb1, 0x3d, 0x76, 0x19, 0x8a, 0xbd, 0xe5, 0x62, 0x77, 0xbe,
  0x08, 0xaf, 0x40, 0x3e, 0x64, 0x75, 0xad, 0x3d, 0x72, 0xf7, 0x6c, 0x3d,
  0xe5, 0xc4, 0x9d, 0xbd, 0x2e, 0x8e, 0x92, 0x3d, 0x1e, 0xcd, 0x33, 0xbe,
  0x5d, 0xdb, 0x3f, 0x3e, 0x5b, 0x8b, 0x90, 0xbe, 0x88, 0xd8, 0x8d, 0xbd,
  0x2a, 0x7a, 0x6e, 0xbe, 0x46, 0xc4, 0x70, 0xbe, 0xdc, 0x28, 0x66, 0xbe,
  0x1c, 0x15, 0x5b, 0xbb, 0x24, 0x7f, 0xd0, 0xba, 0xc8, 0x21, 0x01, 0xbe,
  0x63, 0x68, 0x97, 0xbe, 0x8d, 0x54, 0xc1, 0xbc, 0x65, 0xde, 0x30, 0x3e,
  0xeb, 0x02, 0x19, 0x3e, 0xd8, 0x2a, 0x27, 0xbe, 0x37, 0x6b, 0xb9, 0x3b,
  0xdd, 0xe8, 0x86, 0xbe, 0xfa, 0x3c, 0x29, 0x3e, 0xc1, 0xab, 0x54, 0x3c,
  0xc3, 0xa8, 0x79, 0xbe, 0x6e, 0x44, 0x61, 0xbd, 0x9f, 0xb8, 0xe1, 0x3d,
  0x2c, 0x8c, 0x43, 0xbd, 0x49, 0xe0, 0xc9, 0xbd, 0x49, 0x48, 0xab, 0xbd,
  0x86, 0x25, 0x7b, 0x3d, 0x30, 0x5a, 0xa4, 0x3a, 0x4c, 0x18, 0x2a, 0x3e,
  0xe2, 0x2e, 0xfa, 0xbd, 0xc8, 0x58, 0xb9, 0x3c, 0x72, 0xf3, 0x6f, 0xbe,
  0xbf, 0xbc, 0x7b, 0xbd, 0xf8, 0xb9, 0x9a, 0x3d, 0xf8, 0xd8, 0x4e, 0xbe,
  0x4b, 0xe3, 0x96, 0xbe, 0x90, 0x15, 0x20, 0x3e, 0x5b, 0xfd, 0xa8, 0xbe,
  0x3b, 0x0d, 0x45, 0xbd, 0x98, 0xac, 0x05, 0x3b, 0xb6, 0x18, 0xc0, 0x3e,
  0x42, 0x13, 0x0e, 0xbe, 0x14, 0x23, 0x8b, 0xbd, 0x71, 0xc3, 0x88, 0x3e,
  0xf9, 0x3c, 0x65, 0x3d, 0xb1, 0xe4, 0xe9, 0xbc, 0xf9, 0x28, 0x92, 0x3e,
  0xee, 0x27, 0x05, 0xbe, 0x2e, 0x36, 0xf9, 0xbd, 0x50, 0x35, 0x0e, 0x3e,
  0x0b, 0x69, 0xe4, 0x3b, 0x7e, 0x03, 0x81, 0xbd, 0xe9, 0xd3, 0xf8, 0xbd,
  0xe5, 0xb8, 0x94, 0x3d, 0x1b, 0xd7, 0xac, 0xbd, 0x56, 0xef, 0x50, 0xbb,
  0x6c, 0xfd, 0x4a, 0x3e, 0xf9, 0xb5, 0x84, 0xbe, 0x7b, 0x82, 0xd4, 0xbd,
  0x52, 0x6f, 0xca, 0x3c, 0x76, 0x7b, 0x3f, 0xbd, 0xad, 0x92, 0x00, 0xbd,
  0x74, 0x72, 0x06, 0x3e, 0x7c, 0x19, 0x88, 0x3d, 0xe9, 0x2e, 0x93, 0xbd,
  0x2b, 0x80, 0x5f, 0xbd, 0x8a, 0x13, 0xaf, 0xbd, 0x72, 0x4a, 0xe6, 0x3a,
  0x2e, 0x7b, 0x3f, 0x3e, 0x04, 0xb1, 0x8b, 0xbd, 0x5d, 0x39, 0xfb, 0x3d,
  0x87, 0xd9, 0xeb, 0x3d, 0x47, 0xfe, 0xa5, 0x3e, 0xea, 0xed, 0x11, 0xbe,
  0xb4, 0x48, 0xc8, 0xbc, 0x4b, 0x73, 0x34, 0x3e, 0xcc, 0x2e, 0x40, 0xbe,
  0x21, 0x84, 0xf0, 0x3c, 0xed, 0x7a, 0x15, 0x3e, 0x51, 0xe9, 0x9c, 0xbd,
  0x02, 0xe0, 0x80, 0xbd, 0x90, 0x82, 0x31, 0xbd, 0x42, 0xad, 0x5c, 0x3e,
  0xe0, 0x41, 0x51, 0xbe, 0x72, 0x91, 0x3f, 0xbe, 0x2b, 0x06, 0x68, 0xbe,
  0x13, 0x4d, 0x60, 0x3e, 0x6f, 0x7b, 0xf7, 0x3c, 0xd0, 0x5a, 0xf2, 0x3d,
  0xdf, 0x43, 0xbf, 0xbc, 0x3c, 0x1d, 0x9c, 0xbc, 0xdc, 0xac, 0xa9, 0x3d,
  0x8f, 0x32, 0x60, 0xbe, 0xf2, 0xb9, 0x89, 0x3d, 0xc6, 0x11, 0xd0, 0xbd,
  0x6d, 0xde, 0x46, 0xbe, 0x72, 0x49, 0x52, 0x3e, 0x8d, 0x14, 0x99, 0xbe,
  0x62, 0x2c, 0x80, 0x3d, 0x58, 0x5d, 0x17, 0xbe, 0xb4, 0xfb, 0xdd, 0xbd,
  0xf8, 0x10, 0x06, 0x3e, 0x96, 0x31, 0x24, 0x3e, 0xea, 0x2f, 0xe2, 0xbd,
  0x8b, 0x69, 0x3e, 0x3d, 0x9c, 0xb4, 0x79, 0xbe, 0x9e, 0x69, 0x67, 0xbd,
  0x06, 0x36, 0x70, 0xbd, 0x01, 0x07, 0x75, 0x3c, 0x54, 0xea, 0x26, 0x3e,
  0x18, 0x5c, 0x10, 0x3e, 0x38, 0xd3, 0x93, 0x3c, 0xa5, 0xab, 0x37, 0x3d,
  0xe5, 0xc4, 0xd2, 0xbd, 0x34, 0xdd, 0xdc, 0xbd, 0x97, 0x44, 0x15, 0x3d,
  0x3e, 0x3a, 0xd5, 0x3d, 0x38, 0x41, 0x02, 0xbe, 0x10, 0xae, 0x17, 0x3e,
  0x2a, 0x47, 0xb2, 0x3d, 0x6b, 0xdd, 0x12, 0x3e, 0x37, 0x8e, 0x44, 0xbd,
  0xf0, 0xc9, 0x33, 0xbe, 0x78, 0xc7, 0xa8, 0x3d, 0xf2, 0x17, 0x53, 0xbd,
  0x1c, 0xf8, 0xb9, 0xbc, 0xae, 0xac, 0xd3, 0x3d, 0xfe, 0xbb, 0x57, 0xbe,
  0xfb, 0xad, 0xdd, 0xbc, 0x87, 0x44, 0x4a, 0xbc, 0x1e, 0x8c, 0x1d, 0xbe,
  0xed, 0x33, 0x62, 0x3d, 0xaa, 0xb0, 0x6f, 0x3e, 0x4e, 0xd6, 0xd3, 0xbd,
  0xae, 0xce, 0x2e, 0x3e, 0xf2, 0x05, 0xa2, 0xbd, 0x79, 0x17, 0x4b, 0xbe,
  0xcd, 0x39, 0xc5, 0xbc, 0xb6, 0x41, 0x4a, 0xbe, 0x0e, 0x67, 0x41, 0xbd,
  0xc0, 0x02, 0x40, 0x3e, 0x72, 0x3c, 0x4a, 0xbd, 0x2d, 0x5e, 0x1b, 0x3d,
  0x98, 0x78, 0xf9, 0xbd, 0xa0, 0x9b, 0xcb, 0x3d, 0x99, 0x55, 0x49, 0x3b,
  0x86, 0xb6, 0x11, 0xbe, 0xdf, 0x6f, 0xaf, 0x3d, 0x37, 0x04, 0xb9, 0x3d,
  0xf4, 0x2c, 0xa6, 0xbe, 0xb2, 0x47, 0x5b, 0xbc, 0x61, 0x04, 0x9b, 0x3c,
  0xdb, 0xc3, 0x40, 0x3c, 0x0c, 0x5a, 0x8f, 0x3d, 0xb8, 0xdf, 0x85, 0x3d,
  0xba, 0x2b, 0x56, 0xbe, 0xed, 0x72, 0x55, 0xbb, 0xb1, 0xb8, 0xd5, 0xbd,
  0x05, 0x12, 0x20, 0xbe, 0x7b, 0x3b, 0x1f, 0x3e, 0xb8, 0x96, 0x20, 0xbe,
  0xd1, 0x6e, 0xb2, 0xbc, 0xed, 0xd3, 0xe8, 0xbc, 0x3a, 0x00, 0xc4, 0x3d,
  0x6c, 0xe9, 0x69, 0x3e, 0x0e, 0x52, 0xb4, 0x3d, 0xf6, 0x73, 0x09, 0xbe,
  0xb0, 0x2e, 0x1e, 0xbe, 0x22, 0x97, 0x45, 0xbe, 0x44, 0xea, 0x3b, 0xbe,
  0x46, 0xa8, 0x45, 0xbe, 0x97, 0x6e, 0x0f, 0xbe, 0x65, 0xca, 0x07, 0x3e,
  0x0a, 0x65, 0x50, 0xbd, 0xe4, 0x64, 0x4a, 0x3c, 0x26, 0x2b, 0xef, 0xbd,
  0x81, 0xb0, 0xa7, 0x3d, 0x8f, 0x63, 0x51, 0xbe, 0xab, 0xb3, 0x26, 0x3e,
  0xe5, 0x28, 0xad, 0xbc, 0x01, 0x44, 0xf3, 0xbc, 0xb3, 0x1e, 0x5e, 0x3e,
  0x2d, 0xbf, 0xd6, 0xbd, 0x5a, 0xa1, 0x32, 0xbe, 0x1d, 0x8d, 0xb6, 0xbe,
  0x05, 0x16, 0x55, 0x3e, 0x5a, 0x32, 0x8f, 0xbe, 0x0c, 0xaf, 0x7e, 0xbe,
  0xfe, 0x67, 0x54, 0xbe, 0x79, 0x96, 0x45, 0xbe, 0x65, 0xd3, 0x43, 0xbe,
  0x11, 0xc9, 0x51, 0x3e, 0xa8, 0x07, 0x2b, 0xbe, 0x4a, 0x5c, 0x23, 0x3e,
  0x0a, 0x0b, 0xcb, 0x3b, 0x66, 0x08, 0x3b, 0x3e, 0x16, 0x77, 0x94, 0x3d,
  0xee, 0x0f, 0x6b, 0x3e, 0xc8, 0x0a, 0xf8, 0x3c, 0xb2, 0x2e, 0xc1, 0xbd,
  0xd7, 0x11, 0x6a, 0xbc, 0x22, 0xa1, 0x5e, 0xbd, 0xf6, 0xf3, 0x89, 0xbe,
  0xe8, 0xaf, 0x08, 0xbe, 0xa1, 0x4e, 0xaa, 0x3d, 0x33, 0xe7, 0x8e, 0xbc,
  0xa7, 0xe5, 0x16, 0xbe, 0xce, 0xe5, 0x47, 0xbc, 0x8c, 0x9f, 0x1f, 0x3e,
  0x17, 0x96, 0x3c, 0xbe, 0xf2, 0xc0, 0xe9, 0x3c, 0x9d, 0x61, 0x3b, 0x3e,
  0x2f, 0xa2, 0x52, 0x3e, 0x0d, 0xc6, 0x02, 0x3e, 0x06, 0x96, 0x6a, 0xbe,
  0x55, 0x13, 0x65, 0xbe, 0x62, 0xda, 0xaf, 0xbd, 0xa0, 0xa8, 0x02, 0xbe,
  0x97, 0x86, 0xa1, 0xbd, 0x55, 0x04, 0x4b, 0xbe, 0x27, 0x4b, 0xdf, 0x3d,
  0xe9, 0xd1, 0x9e, 0xbd, 0xa1, 0xcf, 0x27, 0xbe, 0x5b, 0xe6, 0x0b, 0x3e,
  0xe6, 0x86, 0x08, 0x3e, 0xb3, 0x71, 0x0a, 0x3d, 0x36, 0xe4, 0x79, 0xbd,
  0x66, 0x63, 0xbd, 0xbd, 0x8c, 0x48, 0x3e, 0x3e, 0x81, 0x7a, 0x76, 0x3d,
  0x60, 0xd7, 0x4e, 0xbe, 0x7f, 0xcd, 0xbf, 0x3d, 0xd4, 0x60, 0x18, 0xbe,
  0x56, 0x59, 0xa5, 0xbd, 0x4f, 0x89, 0x5e, 0xbe, 0x88, 0xf9, 0x02, 0x3e,
  0xab, 0xde, 0x75, 0x3c, 0xfc, 0xf0, 0x12, 0xbc, 0x71, 0x3d, 0x94, 0x3d,
  0x4a, 0xf3, 0x82, 0xbd, 0xc8, 0xe3, 0x28, 0xbe, 0x53, 0x2c, 0x21, 0x3e,
  0x64, 0xb5, 0x05, 0x3d, 0x78, 0xc7, 0x8e, 0x3d, 0xaf, 0x40, 0xd7, 0xbd,
  0x55, 0xb6, 0xfb, 0x3d, 0xb2, 0xd6, 0x2f, 0xbd, 0x8e, 0x0c, 0x48, 0x3d,
  0x01, 0x39, 0xe3, 0x3d, 0xfa, 0x32, 0xf7, 0xbd, 0x6e, 0x77, 0x25, 0x3d,
  0x60, 0xb2, 0x19, 0xbe, 0x2e, 0x2e, 0x11, 0xbe, 0x34, 0xef, 0x3b, 0xbe,
  0x71, 0x12, 0x85, 0xbe, 0x0d, 0x08, 0x82, 0x3d, 0xd1, 0x5a, 0x24, 0xbe,
  0x7e, 0xb6, 0x4a, 0xbd, 0x08, 0x1d, 0x4c, 0xbe, 0x21, 0x73, 0x81, 0x3e,
  0xa9, 0x16, 0x85, 0x3d, 0xa0, 0x6b, 0xa8, 0x3c, 0x89, 0x19, 0x32, 0xbe,
  0xa7, 0xb7, 0x06, 0xbe, 0x00, 0x25, 0x18, 0xbd, 0x4d, 0xb0, 0x25, 0xbd,
  0x7b, 0x08, 0x03, 0xbe, 0x44, 0x77, 0x3c, 0x3d, 0x55, 0xf0, 0x62, 0xbe,
  0x17, 0x5a, 0x2f, 0x3c, 0x80, 0xfc, 0x7e, 0xbe, 0x5e, 0x2f, 0x25, 0xbe,
  0xf2, 0xd9, 0x03, 0x3b, 0xcf, 0x0c, 0x06, 0x3e, 0x33, 0x55, 0x1b, 0x3e,
  0x56, 0xe5, 0x45, 0x3d, 0xeb, 0x4c, 0x63, 0x3e, 0xb8, 0x69, 0x79, 0x3e,
  0x3b, 0x75, 0x42, 0x3d, 0xd5, 0x6a, 0x20, 0xbd, 0x98, 0xf8, 0x87, 0xbe,
  0xb0, 0xc9, 0xa2, 0x3d, 0xcc, 0xa4, 0x4e, 0xbe, 0x26, 0xfc, 0x86, 0xbe,
  0xa6, 0xb8, 0x8a, 0xbd, 0xeb, 0x58, 0xd7, 0x3d, 0xf5, 0xca, 0x23, 0xbe,
  0x27, 0x0b, 0x7a, 0x3e, 0xd6, 0x91, 0x0d, 0x3e, 0xdc, 0xfc, 0xba, 0x3d,
  0xf7, 0xa6, 0xe5, 0xbd, 0x78, 0xfc, 0xa3, 0x3d, 0x31, 0xe5, 0xa3, 0x3e,
  0xb4, 0xd0, 0xdb, 0x3d, 0x49, 0xff, 0x18, 0xbd, 0x03, 0x4c, 0x02, 0x3e,
  0x41, 0x09, 0xa8, 0xbe, 0xc8, 0x79, 0x28, 0x3d, 0x8e, 0x55, 0x44, 0xbe,
  0x92, 0x98, 0x11, 0xbd, 0x0f, 0x96, 0x1c, 0xbe, 0x49, 0x0e, 0x15, 0x3e,
  0x2b, 0x06, 0x8a, 0xbe, 0x87, 0x8c, 0x89, 0x3c, 0x4b, 0xe5, 0x90, 0xbc,
  0x64, 0xc5, 0xf8, 0xbd, 0xa6, 0xd2, 0x03, 0xbe, 0x96, 0xe8, 0xcc, 0x3d,
  0xe6, 0x10, 0x88, 0x3d, 0xcc, 0xd8, 0x09, 0xbe, 0x03, 0x23, 0x60, 0x3d,
  0xff, 0x4a, 0xeb, 0xbb, 0x73, 0x98, 0x22, 0xbe, 0x9a, 0x94, 0x26, 0xbe,
  0xc3, 0xf1, 0xb8, 0xbe, 0x01, 0xa6, 0x72, 0xbd, 0xe7, 0xc6, 0x65, 0xbd,
  0x66, 0x3d, 0xb4, 0x3d, 0x40, 0x74, 0x9a, 0xbe, 0xcc, 0xac, 0x4d, 0xbe,
  0x12, 0xf9, 0x15, 0x3e, 0x9d, 0x5d, 0x28, 0xbd, 0xa1, 0x58, 0xf7, 0xbd,
  0x87, 0xb5, 0xfb, 0xbd, 0x70, 0x8e, 0xf7, 0x3d, 0x1e, 0x64, 0x41, 0x3e,
  0x41, 0x8e, 0xc6, 0xbe, 0x97, 0x45, 0xb9, 0xbd, 0xc4, 0xb2, 0xbc, 0xbd,
  0xfc, 0x6e, 0x5e, 0x3e, 0x6a, 0x10, 0xbc, 0xbe, 0x70, 0x66, 0x5b, 0xbe,
  0xb9, 0x5e, 0x02, 0x3e, 0x87, 0xa2, 0xb8, 0xbd, 0x50, 0x69, 0x5a, 0xbc,
  0x52, 0x4b, 0x8a, 0x3d, 0xed, 0x2b, 0x05, 0xbd, 0x4d, 0x2c, 0xc4, 0x3d,
  0x34, 0x50, 0x3a, 0x3e, 0x9b, 0xf2, 0x30, 0xbd, 0x41, 0xaa, 0x8e, 0x3c,
  0x4e, 0xe9, 0x0b, 0xbe, 0xe2, 0x1b, 0x4a, 0xbe, 0x26, 0x82, 0x87, 0xbe,
  0x1c, 0x1f, 0x2b, 0x3d, 0xd0, 0x6c, 0x29, 0x3e, 0x45, 0x1e, 0x3c, 0xbe,
  0x80, 0x6b, 0x1d, 0xbe, 0x8a, 0xa8, 0x03, 0xbd, 0xc3, 0xbc, 0x99, 0x3d,
  0x98, 0x9a, 0x80, 0xbe, 0x89, 0x34, 0x03, 0x3e, 0x36, 0x21, 0xe8, 0x3c,
  0xae, 0xfd, 0x97, 0xbd, 0x36, 0x04, 0x9a, 0x3d, 0x1c, 0x49, 0x63, 0x3e,
  0x7f, 0xc7, 0xbc, 0x3e, 0x54, 0x8b, 0xe9, 0x3d, 0xd4, 0xce, 0x8b, 0xbe,
  0xf1, 0x37, 0xf3, 0xbd, 0x72, 0x07, 0x21, 0x3c, 0x69, 0xe0, 0xe7, 0x3d,
  0x50, 0x4f, 0x6c, 0xbe, 0x30, 0xbb, 0xaf, 0x3d, 0x67, 0x08, 0xa3, 0xbe,
  0x9a, 0xe3, 0xca, 0x3c, 0x17, 0x39, 0x07, 0xbe, 0x6e, 0x0f, 0x3e, 0x3e,
  0xb5, 0xe8, 0x2b, 0xbe, 0xee, 0x35, 0x81, 0x3d, 0xd5, 0xc5, 0xe3, 0xbc,
  0x57, 0x47, 0xe8, 0x3d, 0x32, 0x93, 0x96, 0x3e, 0x71, 0x95, 0x0a, 0x3e,
  0xbc, 0x7c, 0xb5, 0xbd, 0x77, 0x38, 0x2c, 0x3e, 0x81, 0xfe, 0x06, 0x3e,
  0xf7, 0x44, 0x26, 0xbe, 0x14, 0xaf, 0x6e, 0xbd, 0xc5, 0x06, 0xf1, 0xba,
  0x1b, 0x03, 0x7f, 0xbd, 0x9c, 0xd4, 0x33, 0xbe, 0xfc, 0x55, 0x12, 0xbe,
  0x9b, 0xd4, 0xb6, 0xbd, 0x74, 0x97, 0xbc, 0xbd, 0xc3, 0x1e, 0x60, 0xbe,
  0x47, 0x9c, 0x0c, 0xbe, 0x40, 0x5d, 0x2f, 0xbe, 0x7d, 0xa1, 0x30, 0x3d,
  0x9c, 0xc6, 0x19, 0x3e, 0x1e, 0x56, 0x83, 0xbd, 0x87, 0x77, 0xa3, 0x3d,
  0xee, 0x7e, 0xe4, 0xbd, 0x4a, 0x4b, 0x1c, 0xbe, 0xde, 0x74, 0xe0, 0xbd,
  0x62, 0x35, 0x87, 0xbd, 0xa1, 0xc9, 0x27, 0x3e, 0x3b, 0xd4, 0x25, 0xbe,
  0x26, 0xcd, 0x27, 0xbe, 0x24, 0x55, 0x1d, 0x3e, 0x60, 0xfd, 0x35, 0x3c,
  0xb4, 0x15, 0x08, 0xbd, 0x77, 0x5e, 0x4d, 0xbe, 0xb9, 0x9b, 0xcf, 0x3c,
  0xad, 0x43, 0xd4, 0xbd, 0xaa, 0x9b, 0x05, 0xbe, 0xaa, 0x8e, 0x60, 0xbe,
  0x2b, 0x71, 0x9e, 0xbd, 0xeb, 0x76, 0x05, 0xbe, 0x2b, 0x5c, 0x54, 0xbe,
  0x2b, 0x3a, 0x37, 0x3e, 0xdd, 0xfa, 0xf3, 0xbd, 0xfa, 0x0b, 0xf4, 0xbd,
  0xb4, 0xb9, 0x00, 0x3e, 0xa6, 0xe9, 0x28, 0xbe, 0x26, 0x0f, 0x8b, 0x3d,
  0xba, 0x0a, 0xc9, 0xbd, 0x09, 0x0b, 0x27, 0xbd, 0x51, 0x29, 0x31, 0x3e,
  0xa2, 0x01, 0xe1, 0x3d, 0xf0, 0x0d, 0x38, 0xbd, 0xf8, 0xb7, 0xcd, 0x3c,
  0x88, 0x6a, 0x5e, 0xbe, 0x3c, 0x7d, 0x48, 0xbe, 0xb4, 0x65, 0x4f, 0x3c,
  0xd0, 0x4c, 0x3e, 0xbe, 0x1f, 0x15, 0x32, 0x3e, 0x85, 0x94, 0x94, 0x3c,
  0x52, 0x96, 0xcf, 0xbd, 0xd5, 0x37, 0xc0, 0xbd, 0x1b, 0x68, 0xaf, 0x3d,
  0x4c, 0xb5, 0x2b, 0x3e, 0x00, 0xb9, 0x04, 0xbc, 0x20, 0xa1, 0x16, 0xbd,
  0xbb, 0x08, 0x33, 0x3e, 0x22, 0xad, 0x6d, 0xbd, 0x76, 0x8c, 0x00, 0x3d,
  0xb6, 0x46, 0x15, 0xbe, 0x6c, 0x2b, 0x67, 0x3d, 0x03, 0xa1, 0x1b, 0xbe,
  0x69, 0x52, 0xf3, 0xbc, 0xa8, 0xce, 0x36, 0xbe, 0xe8, 0x02, 0x46, 0xbd,
  0xfe, 0x0e, 0x42, 0x3c, 0x37, 0x3a, 0xcd, 0x3d, 0x49, 0x68, 0xbe, 0x3c,
  0x85, 0x95, 0xff, 0x3d, 0xeb, 0xb4, 0x1f, 0xbe, 0xd8, 0x4b, 0xce, 0x3c,
  0xcf, 0xae, 0x07, 0xbd, 0xa8, 0x3c, 0x53, 0xbe, 0xd0, 0xfb, 0x48, 0x3d,
  0xb2, 0xc3, 0x88, 0x3d, 0x42, 0x52, 0x1c, 0x3e, 0x47, 0x9a, 0x55, 0x3e,
  0xa4, 0xe8, 0x0c, 0xbe, 0x41, 0xf8, 0x17, 0xbe, 0xc8, 0xf0, 0x5e, 0xbe,
  0x29, 0x24, 0x2c, 0xbd, 0x3c, 0x9e, 0x65, 0xbe, 0xa0, 0xca, 0xec, 0x3c,
  0xa5, 0x2c, 0x12, 0x3c, 0x99, 0x74, 0x56, 0xbe, 0x66, 0x28, 0x8b, 0x3c,
  0xf0, 0xf5, 0x0f, 0x3c, 0xa0, 0x82, 0x74, 0xbe, 0x90, 0xce, 0x0a, 0xbe,
  0x5c, 0xc1, 0xaf, 0x3b, 0x9c, 0x39, 0x43, 0x3d, 0x8a, 0x2e, 0xeb, 0x3c,
  0x40, 0xb7, 0x4f, 0xbc, 0xd4, 0x7c, 0x6f, 0x3d, 0x41, 0x49, 0x23, 0xbe,
  0xdb, 0xca, 0x8b, 0xbd, 0xd1, 0x68, 0x46, 0xbe, 0x05, 0x07, 0xdb, 0xbd,
  0xea, 0x9e, 0x0d, 0x3e, 0xb0, 0x15, 0x37, 0xbe, 0x04, 0x9e, 0x6f, 0xbc,
  0xad, 0x6a, 0xdd, 0xbd, 0x68, 0x39, 0xb9, 0xbc, 0x57, 0xd8, 0xbc, 0xbd,
  0x70, 0xf8, 0x34, 0x3c, 0x67, 0xd3, 0x6d, 0xbe, 0x3e, 0x49, 0x1e, 0x3e,
  0xcd, 0x0b, 0xd4, 0x3c, 0xa9, 0x48, 0xae, 0x3b, 0x43, 0x9f, 0x4c, 0x3e,
  0x0e, 0x1e, 0x53, 0xbe, 0x0d, 0x4e, 0xab, 0xbd, 0x85, 0x16, 0x69, 0x3e,
  0x84, 0x34, 0x5c, 0xbd, 0xfd, 0x6f, 0x0a, 0xbe, 0xdb, 0x88, 0x0b, 0x3e,
  0x46, 0x80, 0xaf, 0xbd, 0x78, 0xb2, 0x2b, 0x3e, 0xd2, 0xe8, 0x8d, 0xbd,
  0xef, 0x23, 0x11, 0xbd, 0xd4, 0xa2, 0x78, 0x3e, 0xa1, 0x80, 0x6e, 0x3b,
  0x74, 0x88, 0x16, 0xbe, 0xf8, 0x0d, 0x08, 0xbe, 0x0c, 0xe5, 0x1e, 0x3e,
  0xb2, 0x82, 0x13, 0xbd, 0x0d, 0x47, 0x88, 0xbe, 0xa5, 0x1a, 0x13, 0xbe,
  0x61, 0x71, 0x40, 0x3e, 0x4a, 0x05, 0x14, 0x3d, 0x15, 0x2c, 0x09, 0xbe,
  0x2a, 0x8c, 0x0a, 0xbe, 0xef, 0x7c, 0xa4, 0xbd, 0x97, 0x88, 0xc6, 0xbd,
  0x1c, 0x09, 0xb8, 0xbd, 0xab, 0x7f, 0xf2, 0x3d, 0xe9, 0x3e, 0xd3, 0xbd,
  0x79, 0x31, 0xb6, 0xbe, 0xa9, 0xd3, 0x6e, 0x3d, 0x76, 0x94, 0x04, 0xbe,
  0xaf, 0x83, 0x79, 0x3d, 0xe3, 0x2e, 0xde, 0x3d, 0x55, 0x50, 0xc2, 0xbd,
  0x51, 0x03, 0x44, 0x3e, 0x1b, 0x35, 0x63, 0x3e, 0x83, 0xc2, 0x4b, 0x3d,
  0x42, 0x88, 0x41, 0xbe, 0xa8, 0xcf, 0xcf, 0xbc, 0xaf, 0x08, 0x68, 0xbe,
  0x03, 0x46, 0x77, 0xbd, 0x0e, 0x78, 0xa8, 0x3b, 0x0f, 0xbc, 0x18, 0xbe,
  0xe8, 0xe3, 0x34, 0x3e, 0x77, 0xde, 0x86, 0xbe, 0x1a, 0x9f, 0x68, 0xbe,
  0x30, 0x38, 0x88, 0x3d, 0xd2, 0x87, 0x30, 0x3a, 0x53, 0x00, 0x08, 0xbc,
  0x66, 0x2b, 0x90, 0xbc, 0x59, 0x5c, 0x7d, 0xbd, 0xe4, 0x69, 0x4f, 0xbc,
  0xaf, 0x0d, 0x38, 0xbe, 0x80, 0x61, 0x14, 0xbb, 0x77, 0x95, 0x90, 0x3d,
  0x5c, 0xe0, 0x32, 0xbe, 0x35, 0x10, 0x6a, 0x3e, 0x30, 0x21, 0x4d, 0x3c,
  0x5b, 0x80, 0xda, 0xbd, 0x78, 0x17, 0xdb, 0x3d, 0x87, 0xa0, 0x61, 0xbe,
  0x84, 0x5f, 0x3d, 0xbc, 0xce, 0xd3, 0x6b, 0xbe, 0xbe, 0x97, 0x8d, 0xbd,
  0x2a, 0xcd, 0x34, 0xbc, 0x29, 0xdd, 0x2f, 0xbe, 0x59, 0x25, 0xc3, 0x3c,
  0x2f, 0xc9, 0x25, 0xbd, 0x9f, 0x7c, 0x31, 0x3e, 0x9a, 0xdc, 0x1d, 0xbe,
  0x13, 0x2f, 0x67, 0x3e, 0x59, 0x6a, 0x49, 0xbe, 0x9d, 0x87, 0xf7, 0x3d,
  0x60, 0xd9, 0xb3, 0x3d, 0xe6, 0x87, 0x30, 0xbe, 0x06, 0x51, 0xbc, 0xbd,
  0x75, 0xb9, 0x98, 0xbe, 0xbd, 0x61, 0xdc, 0x3d, 0x1f, 0x88, 0x50, 0xbe,
  0x96, 0x05, 0x1f, 0xbd, 0x77, 0x61, 0x0c, 0xbe, 0x93, 0x2b, 0x64, 0x3d,
  0x05, 0x70, 0x04, 0x3d, 0x80, 0x46, 0xb1, 0x3d, 0x59, 0x63, 0x90, 0xbc,
  0xe8, 0x94, 0x22, 0xbd, 0x28, 0x7e, 0x64, 0x3d, 0x2f, 0x2a, 0x20, 0xbd,
  0x94, 0x91, 0x3d, 0xbd, 0x90, 0x10, 0x75, 0xbd, 0x4e, 0x93, 0xbe, 0x3c,
  0xbd, 0x7d, 0x73, 0x3d, 0x80, 0xd6, 0x9f, 0xbe, 0xcc, 0x2b, 0x3f, 0x3e,
  0x70, 0x1e, 0x74, 0xbd, 0x76, 0x54, 0x1c, 0x3e, 0x00, 0x43, 0xb2, 0xbd,
  0x14, 0x85, 0x84, 0xbe, 0x28, 0x4e, 0x55, 0xbd, 0xc3, 0xd7, 0xb4, 0x3e,
  0x8a, 0x34, 0x8b, 0x3b, 0x0d, 0xe1, 0x23, 0x3e, 0x7a, 0x56, 0x1d, 0x3d,
  0x79, 0x7c, 0x6e, 0xbd, 0xfc, 0xce, 0x11, 0x3e, 0xb8, 0xe2, 0x9c, 0x3d,
  0x19, 0x4f, 0xc1, 0x3d, 0x41, 0xda, 0x74, 0xbd, 0xb9, 0x35, 0x8a, 0xbd,
  0xd5, 0x70, 0xcd, 0x3d, 0x40, 0x3d, 0x96, 0xbd, 0xb7, 0xa4, 0x61, 0xbe,
  0x84, 0x73, 0x1e, 0x3c, 0x2f, 0x49, 0x2e, 0x3e, 0x95, 0x90, 0x6f, 0xbe,
  0x6d, 0xc9, 0x22, 0xbe, 0xdc, 0x5d, 0x15, 0xbd, 0x54, 0xf8, 0x35, 0xbd,
  0xfe, 0x49, 0x88, 0x3b, 0x60, 0xf6, 0x11, 0xbd, 0x4b, 0x9e, 0xf1, 0xbd,
  0x9b, 0x0b, 0x16, 0x3e, 0xfa, 0xbe, 0x46, 0xbb, 0x06, 0x60, 0x05, 0x3e,
  0x5f, 0xd0, 0x08, 0xbe, 0xfb, 0x45, 0x45, 0x3e, 0x99, 0xe3, 0xe3, 0xbd,
  0xe7, 0xe3, 0x2b, 0xbe, 0x8a, 0xde, 0x47, 0xbe, 0xd3, 0xbc, 0x0b, 0x3e,
  0xcb, 0x4f, 0x8f, 0x3d, 0x91, 0x79, 0xd7, 0x3d, 0xd3, 0xbd, 0xc3, 0x3d,
  0x9d, 0xcc, 0xfb, 0xbd, 0x47, 0x48, 0x15, 0xbd, 0xda, 0x3b, 0x0f, 0xbe,
  0xe6, 0x92, 0x89, 0xbe, 0x62, 0xff, 0x36, 0x3e, 0x75, 0x1b, 0x2d, 0xbe,
  0x13, 0x33, 0x33, 0xbe, 0x9b, 0x45, 0x21, 0xbd, 0x5e, 0xcd, 0x6e, 0x3e,
  0xa6, 0x49, 0x28, 0xbc, 0x09, 0xcf, 0xfd, 0x3d, 0x8d, 0xae, 0x36, 0x3e,
  0x35, 0xaa, 0x86, 0xbd, 0xd6, 0x8a, 0x63, 0xbe, 0xc5, 0xd2, 0x8c, 0x3d,
  0x4d, 0x5b, 0x87, 0x3e, 0x6d, 0x6a, 0x8c, 0x3d, 0x7a, 0xd5, 0x07, 0x3e,
  0x0b, 0xf4, 0xc0, 0x3d, 0xcf, 0xee, 0x24, 0xbe, 0xb7, 0x30, 0x01, 0xbe,
  0x96, 0xe3, 0x00, 0x3c, 0x68, 0xc2, 0x3f, 0xbe, 0x40, 0xd5, 0xac, 0xbd,
  0xfb, 0x1f, 0x83, 0x3d, 0x4d, 0x49, 0x56, 0xbe, 0x95, 0x94, 0x09, 0xbd,
  0x1a, 0x9c, 0xe7, 0xbc, 0x49, 0x97, 0x9e, 0x3d, 0x0d, 0x1d, 0x12, 0xbd,
  0x3c, 0x75, 0x7f, 0xbd, 0x9f, 0xea, 0x92, 0xbd, 0xed, 0x3f, 0x03, 0x3e,
  0x3a, 0x3b, 0x0a, 0x3e, 0x18, 0xd1, 0x85, 0x3e, 0x4c, 0x49, 0xb1, 0x3a,
  0x9a, 0x4d, 0xa5, 0xbd, 0xb2, 0xc4, 0x04, 0x3c, 0xd4, 0x72, 0x0f, 0xbe,
  0x42, 0xc6, 0xc3, 0xbd, 0x91, 0x99, 0x23, 0xbe, 0x04, 0xee, 0x89, 0x3d,
  0x96, 0x7d, 0xa1, 0x3c, 0x3d, 0xdb, 0x71, 0xbe, 0xb3, 0x19, 0x24, 0x3e,
  0xc3, 0x69, 0x11, 0xbe, 0xec, 0x2c, 0xa7, 0x3d, 0xaf, 0x1b, 0xb3, 0x3d,
  0x77, 0x53, 0x98, 0xbd, 0xfa, 0x51, 0x10, 0xbe, 0x2c, 0xca, 0xa7, 0xbd,
  0xc2, 0xa1, 0x98, 0xbd, 0x40, 0x42, 0x14, 0xbb, 0x40, 0x2d, 0xe0, 0x3d,
  0x66, 0xd3, 0x12, 0x3e, 0x67, 0xb2, 0x27, 0x3e, 0xf1, 0xf1, 0x3d, 0x3d,
  0x29, 0x57, 0xba, 0xbd, 0x12, 0x3e, 0xe1, 0xbd, 0x30, 0x12, 0xa3, 0xb7,
  0x93, 0x1f, 0x83, 0x3d, 0xa0, 0xad, 0xb7, 0xbd, 0x38, 0xc6, 0xa1, 0xbd,
  0xdd, 0x42, 0xa6, 0xbb, 0x31, 0x8a, 0x1b, 0xbe, 0x3f, 0x62, 0xa6, 0x3d,
  0x46, 0xc8, 0x82, 0x3e, 0x09, 0x12, 0x39, 0xbe, 0x7e, 0x96, 0x6a, 0x3d,
  0x58, 0x53, 0x73, 0xbe, 0xe1, 0xae, 0x00, 0x3e, 0xa5, 0x3b, 0xef, 0xbd,
  0xc7, 0x59, 0xfa, 0x3d, 0x34, 0x31, 0x98, 0xbe, 0x32, 0x6d, 0x37, 0xbd,
  0xa0, 0x66, 0x65, 0xbe, 0xad, 0xe2, 0x8e, 0x3e, 0xc9, 0x26, 0x3c, 0xbe,
  0x76, 0x95, 0x08, 0xbc, 0x06, 0xb4, 0x1b, 0xbe, 0x33, 0xe0, 0xd2, 0x3d,
  0x38, 0x2b, 0x49, 0x3e, 0x7b, 0x60, 0xfc, 0xbc, 0x14, 0x4d, 0xf4, 0xbd,
  0xbf, 0xde, 0x37, 0x3d, 0xae, 0x97, 0x1f, 0xbd, 0x66, 0x81, 0xcc, 0xbd,
  0x40, 0xc6, 0x2f, 0xbe, 0x05, 0xc0, 0x86, 0x3e, 0x39, 0x68, 0x56, 0xbd,
  0x17, 0xde, 0x66, 0x3e, 0xb2, 0x34, 0x85, 0x3c, 0x68, 0xf0, 0x01, 0xbe,
  0xa1, 0x8f, 0x12, 0x3c, 0x38, 0x29, 0x0f, 0x3e, 0xc2, 0xf5, 0x32, 0xbc,
  0xc8, 0x1e, 0xab, 0x3d, 0xa8, 0xb0, 0xa2, 0x3d, 0x4d, 0xf3, 0x00, 0xbe,
  0xa3, 0xcb, 0x08, 0x3e, 0x86, 0x37, 0x9f, 0xbd, 0x0a, 0x9e, 0x09, 0xbe,
  0x04, 0x3b, 0xbd, 0xbd, 0xdc, 0x9e, 0x48, 0xbe, 0x5d, 0x28, 0x75, 0x3c,
  0x9a, 0x3b, 0xaf, 0x3d, 0x7a, 0x59, 0x57, 0x3e, 0xed, 0x7f, 0x86, 0xbc,
  0x44, 0x1a, 0x31, 0xbe, 0xf6, 0xdc, 0xe8, 0x3b, 0xe5, 0xd6, 0x4f, 0x3e,
  0xe4, 0x3e, 0x53, 0xbd, 0x07, 0x23, 0x12, 0xbc, 0x28, 0x83, 0x7a, 0x3d,
  0xaf, 0x81, 0x86, 0xbe, 0x53, 0x27, 0x6d, 0x3d, 0xee, 0xd6, 0x51, 0xbe,
  0x24, 0xcb, 0x82, 0x3d, 0x97, 0x0c, 0x81, 0xbe, 0x90, 0xeb, 0x51, 0xbe,
  0x4c, 0x1d, 0x33, 0x3e, 0x50, 0x66, 0x91, 0xbe, 0x1c, 0xdf, 0x87, 0x3e,
  0x72, 0x0c, 0x3f, 0x3e, 0x11, 0x71, 0x38, 0xbe, 0x5a, 0x2d, 0xec, 0xbc,
  0x29, 0xdc, 0x46, 0x3e, 0x80, 0x2f, 0x39, 0x3d, 0x93, 0x7b, 0xfb, 0xbd,
  0x92, 0xb0, 0x67, 0x3e, 0xf4, 0x2a, 0x3b, 0xbe, 0x8d, 0x5d, 0x2a, 0x3e,
  0xea, 0x09, 0x0e, 0xbe, 0xa8, 0x28, 0x67, 0xbd, 0x55, 0xe7, 0x58, 0x3d,
  0x03, 0x67, 0xa8, 0xbd, 0x2c, 0x08, 0xb9, 0xbd, 0xaf, 0x6b, 0x91, 0xbd,
  0x08, 0x28, 0xa2, 0x3d, 0xfc, 0xe6, 0x9a, 0x3c, 0xd4, 0x80, 0x4f, 0xbe,
  0x14, 0xc7, 0x79, 0xbd, 0xbf, 0x41, 0x99, 0xbd, 0x32, 0x63, 0x60, 0xbe,
  0xe1, 0x7d, 0x88, 0xbe, 0x54, 0xb8, 0x24, 0xbd, 0xeb, 0x2f, 0x7c, 0xbd,
  0xc7, 0xa3, 0xb0, 0x3c, 0x24, 0x17, 0xf6, 0xbd, 0x8c, 0x49, 0xc6, 0xbd,
  0xd6, 0x0b, 0x09, 0xbd, 0xbc, 0x15, 0x63, 0x3d, 0xb2, 0x00, 0x12, 0x3d,
  0x65, 0xa3, 0xf2, 0xbd, 0xc1, 0xc5, 0x62, 0x3e, 0xe6, 0xba, 0x3c, 0xbd,
  0x1b, 0x5b, 0xda, 0x3d, 0xe5, 0xd5, 0x80, 0xbd, 0x26, 0xc5, 0x6d, 0x3d,
  0x3e, 0xf4, 0xbd, 0x3d, 0x2c, 0x9c, 0xc2, 0xbc, 0xff, 0x6e, 0x2a, 0xbd,
  0xae, 0x97, 0x0a, 0xbe, 0x9d, 0x91, 0x8c, 0x3e, 0xaf, 0x3a, 0xa5, 0xbd,
  0xa0, 0x33, 0xbb, 0xbc, 0x4d, 0xcf, 0xdc, 0xbc, 0xd6, 0x83, 0xf4, 0xbd,
  0x02, 0xa5, 0xd3, 0xbd, 0x55, 0xfa, 0x3f, 0xbd, 0xcc, 0xe3, 0x27, 0x3e,
  0xdc, 0x08, 0xb8, 0xbd, 0x48, 0x4a, 0xab, 0x3d, 0x55, 0xc2, 0xbf, 0xbb,
  0xc9, 0x3e, 0x42, 0x3e, 0xeb, 0x9e, 0x39, 0xbd, 0x57, 0xd2, 0xe9, 0xbd,
  0x5d, 0x06, 0x9e, 0x3c, 0x73, 0xdd, 0x8f, 0xbc, 0x3d, 0x87, 0xdd, 0x3c,
  0x62, 0x2e, 0x2b, 0x3c, 0xd8, 0x9f, 0xac, 0x3d, 0x58, 0xb9, 0x3c, 0x3e,
  0xe3, 0xad, 0x47, 0xbe, 0x42, 0xa8, 0xe1, 0xbd, 0xb1, 0x25, 0x61, 0xbe,
  0x4b, 0xba, 0x36, 0x3e, 0xfa, 0x62, 0x23, 0x3e, 0xe3, 0x69, 0x84, 0xbe,
  0x65, 0x0d, 0x84, 0xbc, 0xeb, 0x0c, 0x90, 0x3e, 0xaa, 0x85, 0x3e, 0xbe,
  0x50, 0x04, 0xdd, 0x3d, 0xd5, 0xc6, 0x61, 0xbd, 0xc2, 0xd8, 0x5d, 0xbd,
  0xcc, 0xc2, 0x53, 0x3e, 0xba, 0xa7, 0x37, 0xbe, 0x34, 0xe3, 0x78, 0xbe,
  0x9c, 0x24, 0xdc, 0x3d, 0x74, 0xb8, 0x66, 0xbe, 0x7d, 0x6d, 0x3f, 0xbe,
  0x21, 0x1a, 0x5b, 0xbd, 0x3c, 0xe7, 0x85, 0x3e, 0xaa, 0x01, 0x8f, 0xbd,
  0x6f, 0x1f, 0x65, 0xbe, 0xe2, 0x66, 0xb1, 0xbd, 0xa9, 0x33, 0xc7, 0x3d,
  0xf8, 0x43, 0x1d, 0xbd, 0x2a, 0x2b, 0x54, 0xbe, 0xed, 0x6f, 0x39, 0x3c,
  0xa0, 0x1e, 0xde, 0xbd, 0x70, 0x9f, 0x1c, 0x3e, 0xff, 0x34, 0x53, 0xbe,
  0x79, 0xc4, 0xf2, 0x3c, 0x8a, 0xca, 0x18, 0xbd, 0xa4, 0xcb, 0x14, 0xbe,
  0x22, 0xa3, 0x37, 0x3e, 0xcc, 0xa4, 0x61, 0x3d, 0xcb, 0x1a, 0xaf, 0x3e,
  0x20, 0xa6, 0x30, 0x3e, 0x41, 0x36, 0xfd, 0xbd, 0x00, 0x68, 0x04, 0xbe,
  0xfd, 0xc3, 0x23, 0x3e, 0x3c, 0x45, 0xc5, 0xbe, 0xec, 0xbe, 0xdc, 0xbc,
  0x26, 0xed, 0x3f, 0xbd, 0x7e, 0x1a, 0x22, 0xbe, 0x02, 0xd5, 0x8b, 0x3d,
  0xc0, 0x53, 0x2d, 0xbb, 0x34, 0x99, 0x46, 0xbd, 0x42, 0xa5, 0xf7, 0x3a,
  0xc8, 0xd7, 0xdf, 0xbe, 0x8e, 0xb2, 0xee, 0x3d, 0xe8, 0xfb, 0x62, 0xbd,
  0x96, 0xa0, 0xf2, 0xbc, 0x39, 0x8a, 0xc8, 0xbd, 0x4d, 0x62, 0x72, 0xbe,
  0x6b, 0x41, 0x54, 0xbe, 0x71, 0x55, 0x65, 0x3e, 0xe1, 0x07, 0x8e, 0xbd,
  0xe0, 0x33, 0x92, 0x3c, 0x28, 0x6c, 0xcb, 0x3c, 0x69, 0x5a, 0x10, 0xbe,
  0x7f, 0x75, 0x0d, 0x3e, 0x2e, 0xdc, 0xb0, 0x3d, 0xe7, 0x60, 0x41, 0xbe,
  0x41, 0xe3, 0xbf, 0xbc, 0x54, 0x16, 0x6d, 0xbe, 0xef, 0x18, 0xeb, 0x3d,
  0x39, 0x55, 0x31, 0xbe, 0xd7, 0xda, 0x11, 0xbe, 0xa3, 0x00, 0xf3, 0x3d,
  0x0b, 0xd8, 0x6b, 0xbe, 0xff, 0xa6, 0x31, 0xbd, 0xf0, 0x89, 0xa2, 0xbd,
  0x3a, 0xef, 0x5d, 0x3b, 0x34, 0x63, 0xee, 0x3d, 0x73, 0xc6, 0x00, 0xbe,
  0xc2, 0x41, 0x84, 0xbe, 0xa4, 0x7b, 0xd9, 0xbd, 0x47, 0xa6, 0x48, 0x3e,
  0x06, 0x55, 0x70, 0xbe, 0xdc, 0x12, 0x32, 0x3d, 0x55, 0x58, 0x3b, 0xbe,
  0x69, 0xcb, 0x57, 0xbb, 0x64, 0x9e, 0x13, 0xbe, 0x1e, 0xc8, 0xf1, 0x3d,
  0x8d, 0x6e, 0x2f, 0x3d, 0x37, 0x81, 0xfd, 0xbc, 0xad, 0xcb, 0xcf, 0x3d,
  0x7a, 0x67, 0x6e, 0x3e, 0x72, 0xc6, 0x92, 0xbd, 0x7b, 0x8a, 0x52, 0x3e,
  0x2e, 0xe0, 0xcf, 0x3c, 0xdd, 0x5d, 0x5f, 0x3c, 0x65, 0x2b, 0x71, 0x3c,
  0x76, 0x0b, 0x07, 0x3e, 0x55, 0x08, 0x31, 0xbe, 0x5c, 0x0e, 0x20, 0xbd,
  0x92, 0xab, 0x20, 0xbd, 0xc1, 0xe1, 0x12, 0xbe, 0x02, 0x67, 0x51, 0xbe,
  0x88, 0xa0, 0x82, 0x3d, 0x9e, 0xc4, 0x11, 0xbe, 0xaa, 0x0c, 0x38, 0xbe,
  0xa7, 0x0b, 0xb5, 0xbb, 0x7a, 0xe9, 0x80, 0x3e, 0xc2, 0x55, 0xdd, 0x3d,
  0xf9, 0xbb, 0x2f, 0x3e, 0xad, 0x4a, 0x51, 0x3d, 0xc7, 0xe7, 0xc7, 0x38,
  0xed, 0x32, 0x1e, 0x3e, 0x80, 0x75, 0xf4, 0x3c, 0x9d, 0x4c, 0x12, 0xbe,
  0x70, 0x18, 0x04, 0x3d, 0x09, 0xa2, 0xee, 0x3c, 0xb6, 0x6a, 0xf0, 0xbd,
  0xa3, 0x94, 0x8a, 0x3d, 0xee, 0x81, 0xae, 0xbc, 0x69, 0x5b, 0xd6, 0x3d,
  0x95, 0xdf, 0x37, 0xbe, 0x56, 0x9a, 0xb1, 0xbd, 0x87, 0xeb, 0x18, 0x3e,
  0x94, 0x35, 0x21, 0x3d, 0xa5, 0x3d, 0xf3, 0xbc, 0x0a, 0xf7, 0xf9, 0x3d,
  0x2a, 0x9d, 0x66, 0xbc, 0x4f, 0xa1, 0xb8, 0xbc, 0x05, 0xcb, 0xed, 0x3d,
  0x25, 0x58, 0xca, 0xbc, 0xda, 0x24, 0x95, 0x3e, 0x30, 0x33, 0x8e, 0xbe,
  0xcb, 0x24, 0x6c, 0xba, 0x3e, 0x76, 0xa3, 0x3d, 0xdb, 0x55, 0xc6, 0x3c,
  0x10, 0x03, 0x50, 0xbd, 0x58, 0xa4, 0x2a, 0xbd, 0x11, 0x74, 0x75, 0xbe,
  0x82, 0xa9, 0x8a, 0x3d, 0x4d, 0x84, 0xb2, 0x3d, 0x5b, 0x5f, 0x5b, 0x3c,
  0x67, 0x34, 0xb4, 0x3d, 0x18, 0xdb, 0xba, 0x3d, 0x9e, 0x28, 0x3b, 0xbe,
  0xeb, 0xc0, 0x4f, 0xbe, 0xbb, 0x1e, 0x0f, 0x3e, 0xb8, 0x6b, 0xdc, 0xbd,
  0x3e, 0xc1, 0xb6, 0xbd, 0x12, 0x8e, 0x03, 0x3d, 0x77, 0xd1, 0x54, 0x3d,
  0xdd, 0x1d, 0x06, 0xbe, 0xb5, 0x5c, 0xd8, 0x3c, 0x1e, 0xbe, 0x02, 0xbb,
  0x56, 0xcc, 0x8f, 0xbe, 0x23, 0x2f, 0x35, 0xbe, 0x3b, 0xe9, 0xb5, 0xbd,
  0x2b, 0x7d, 0x8d, 0x3e, 0xfa, 0x6c, 0x4b, 0x3e, 0x74, 0x1c, 0x20, 0x3e,
  0xe7, 0x7a, 0x54, 0xbe, 0x99, 0x6b, 0x0e, 0xbe, 0xca, 0xe9, 0x8a, 0xbe,
  0xdd, 0x8f, 0x55, 0x3e, 0x50, 0xe6, 0x33, 0xbd, 0x44, 0x64, 0x32, 0x3e,
  0xa5, 0x36, 0x42, 0xbe, 0x29, 0x13, 0xff, 0x3d, 0xcc, 0x6b, 0xae, 0xbb,
  0x2e, 0xd2, 0xf2, 0x3d, 0xe1, 0x68, 0x36, 0xbe, 0x86, 0xb2, 0x03, 0x3e,
  0xbb, 0x93, 0x04, 0x3e, 0xde, 0xfd, 0x36, 0xbd, 0x11, 0x16, 0x70, 0x3e,
  0x14, 0x3e, 0x4e, 0x3e, 0x02, 0xf5, 0x7d, 0xbe, 0xa0, 0x2a, 0x2c, 0xbb,
  0xf4, 0x6e, 0xf8, 0xbd, 0x3e, 0x2d, 0x21, 0xbd, 0x04, 0xab, 0x82, 0xbd,
  0x3d, 0xbe, 0x71, 0x3c, 0x43, 0x6c, 0x6d, 0xbe, 0xda, 0x54, 0xb5, 0x3c,
  0x0d, 0x3c, 0x82, 0xbe, 0x25, 0x5e, 0xd1, 0x3d, 0x38, 0x21, 0x43, 0xbd,
  0xbf, 0x68, 0x5a, 0x3d, 0xa5, 0x2e, 0x16, 0x3e, 0x23, 0xf2, 0x94, 0x3c,
  0x77, 0xd6, 0x24, 0xbd, 0xc9, 0xa8, 0x67, 0x3d, 0x74, 0x71, 0x81, 0xbe,
  0xfb, 0xa0, 0x25, 0xbe, 0x24, 0xdd, 0x1f, 0xbd, 0x1e, 0x60, 0x15, 0x3e,
  0x19, 0x15, 0x23, 0xbe, 0xbd, 0xf5, 0x2b, 0x3e, 0xd9, 0xb8, 0x19, 0xbe,
  0x99, 0xd1, 0x0b, 0xbe, 0x1b, 0xb7, 0x5b, 0xbe, 0x15, 0xe4, 0x4d, 0xbd,
  0x2a, 0xfa, 0xdf, 0x3c, 0x5c, 0x23, 0xe7, 0x3d, 0x34, 0xe9, 0xbd, 0x3d,
  0x1f, 0xcf, 0x13, 0xbe, 0x24, 0x49, 0x93, 0xbd, 0x49, 0x1f, 0x06, 0xbe,
  0xa8, 0xf4, 0xfd, 0xbd, 0x9e, 0x68, 0x47, 0x3e, 0x9d, 0x6b, 0x3e, 0xbe,
  0x4f, 0xed, 0x3e, 0xbc, 0x39, 0xde, 0x6b, 0xbe, 0xb8, 0x1d, 0x17, 0x3e,
  0xfc, 0x23, 0x6c, 0xbe, 0xcb, 0xbe, 0xdd, 0xbd, 0x4a, 0x1e, 0x41, 0xbe,
  0x44, 0xe1, 0x83, 0x3d, 0x8f, 0x1b, 0xbe, 0x3d, 0xde, 0x67, 0x02, 0xbe,
  0x3a, 0x22, 0x12, 0x3e, 0xc5, 0x9e, 0xf7, 0xbd, 0x26, 0xf8, 0x19, 0x3e,
  0xd1, 0x7e, 0xd9, 0xbb, 0x0d, 0x20, 0xf9, 0xbd, 0x29, 0x69, 0x20, 0xbd,
  0x3b, 0x47, 0x82, 0xbe, 0x6b, 0x3c, 0x43, 0x3d, 0x3e, 0xa9, 0x64, 0xbe,
  0x4e, 0x24, 0x2a, 0xbe, 0x43, 0x57, 0xa6, 0xbe, 0xaf, 0xb5, 0x13, 0xbd,
  0x8c, 0x99, 0x78, 0xbd, 0xbf, 0xd3, 0x2d, 0xbd, 0x08, 0x5b, 0x77, 0xbe,
  0x42, 0x50, 0x13, 0xbd, 0x8f, 0xa6, 0x37, 0xbc, 0x19, 0x3c, 0xa1, 0xbd,
  0x29, 0x01, 0xca, 0xbb, 0xd8, 0x0d, 0x61, 0xbe, 0xec, 0x35, 0x6f, 0xbe,
  0x99, 0xcf, 0xb2, 0xbd, 0xb5, 0x37, 0xea, 0xbd, 0x68, 0x5a, 0xa3, 0x3d,
  0xc1, 0x80, 0x7e, 0xbd, 0xe4, 0xd5, 0x89, 0x3e, 0x7d, 0xc2, 0x46, 0xbd,
  0x66, 0xfd, 0xff, 0xff, 0x10, 0x00, 0x00, 0x00, 0x07, 0x00, 0x00, 0x00,
  0x14, 0x00, 0x00, 0x00, 0x2c, 0x00, 0x00, 0x00, 0x02, 0x00, 0x00, 0x00,
  0x10, 0x00, 0x00, 0x00, 0x70, 0x00, 0x00, 0x00, 0x17, 0x00, 0x00, 0x00,
  0x73, 0x65, 0x71, 0x75, 0x65, 0x6e, 0x74, 0x69, 0x61, 0x6c, 0x2f, 0x64,
  0x65, 0x6e, 0x73, 0x65, 0x2f, 0x4d, 0x61, 0x74, 0x4d, 0x75, 0x6c, 0x00,
  0xd0, 0xfc, 0xff, 0xff, 0xda, 0xfd, 0xff, 0xff, 0x04, 0x00, 0x00, 0x00,
  0x08, 0x00, 0x00, 0x00, 0xff, 0xff, 0xff, 0xff, 0x70, 0x00, 0x00, 0x00,
  0x00, 0x00, 0x0e, 0x00, 0x18, 0x00, 0x08, 0x00, 0x07, 0x00, 0x0c, 0x00,
  0x10, 0x00, 0x14, 0x00, 0x0e, 0x00, 0x00, 0x00, 0x00, 0x00, 0x00, 0x02,
  0x10, 0x00, 0x00, 0x00, 0x06, 0x00, 0x00, 0x00, 0x10, 0x00, 0x00, 0x00,
  0x2c, 0x00, 0x00, 0x00, 0x01, 0x00, 0x00, 0x00, 0x02, 0x00, 0x00, 0x00,
  0x18, 0x00, 0x00, 0x00, 0x73, 0x65, 0x71, 0x75, 0x65, 0x6e, 0x74, 0x69,
  0x61, 0x6c, 0x2f, 0x66, 0x6c, 0x61, 0x74, 0x74, 0x65, 0x6e, 0x2f, 0x43,
  0x6f, 0x6e, 0x73, 0x74, 0x00, 0x00, 0x00, 0x00, 0x38, 0xfd, 0xff, 0xff,
  0x42, 0xfe, 0xff, 0xff, 0x04, 0x00, 0x00, 0x00, 0x0c, 0x00, 0x00, 0x00,
  0x60, 0x54, 0x45, 0xbf, 0xf1, 0x13, 0xd3, 0x3f, 0x74, 0xb7, 0x8e, 0xbf,
  0x26, 0xfe, 0xff, 0xff, 0x10, 0x00, 0x00, 0x00, 0x05, 0x00, 0x00, 0x00,
  0x10, 0x00, 0x00, 0x00, 0x44, 0x00, 0x00, 0x00, 0x01, 0x00, 0x00, 0x00,
  0x03, 0x00, 0x00, 0x00, 0x32, 0x00, 0x00, 0x00, 0x73, 0x65, 0x71, 0x75,
  0x65, 0x6e, 0x74, 0x69, 0x61, 0x6c, 0x2f, 0x64, 0x65, 0x6e, 0x73, 0x65,
  0x5f, 0x31, 0x2f, 0x42, 0x69, 0x61, 0x73, 0x41, 0x64, 0x64, 0x2f, 0x52,
  0x65, 0x61, 0x64, 0x56, 0x61, 0x72, 0x69, 0x61, 0x62, 0x6c, 0x65, 0x4f,
  0x70, 0x2f, 0x72, 0x65, 0x73, 0x6f, 0x75, 0x72, 0x63, 0x65, 0x00, 0x00,
  0xa8, 0xfd, 0xff, 0xff, 0xb2, 0xfe, 0xff, 0xff, 0x04, 0x00, 0x00, 0x00,
  0x40, 0x00, 0x00, 0x00, 0x84, 0x51, 0x90, 0xbc, 0xb5, 0xf0, 0x98, 0xbd,
  0xc8, 0x36, 0x8f, 0xbd, 0x43, 0x3b, 0xe1, 0xbd, 0x3b, 0x98, 0x06, 0xbe,
  0xed, 0x65, 0x1d, 0xbe, 0x8a, 0xef, 0xd7, 0xbd, 0x81, 0x87, 0xd1, 0x3b,
  0xc3, 0x90, 0x34, 0x3a, 0xa5, 0xfd, 0x38, 0xbd, 0x48, 0xe1, 0x87, 0xbd,
  0x62, 0x00, 0xce, 0xbd, 0x82, 0x1e, 0x66, 0xbd, 0x26, 0xe6, 0xc7, 0xbd,
  0x9d, 0xa4, 0x61, 0xbe, 0xa2, 0xe7, 0x4a, 0xbd, 0xca, 0xfe, 0xff, 0xff,
  0x10, 0x00, 0x00, 0x00, 0x04, 0x00, 0x00, 0x00, 0x10, 0x00, 0x00, 0x00,
  0x44, 0x00, 0x00, 0x00, 0x01, 0x00, 0x00, 0x00, 0x10, 0x00, 0x00, 0x00,
  0x30, 0x00, 0x00, 0x00, 0x73, 0x65, 0x71, 0x75, 0x65, 0x6e, 0x74, 0x69,
  0x61, 0x6c, 0x2f, 0x64, 0x65, 0x6e, 0x73, 0x65, 0x2f, 0x42, 0x69, 0x61,
  0x73, 0x41, 0x64, 0x64, 0x2f, 0x52, 0x65, 0x61, 0x64, 0x56, 0x61, 0x72,
  0x69, 0x61, 0x62, 0x6c, 0x65, 0x4f, 0x70, 0x2f, 0x72, 0x65, 0x73, 0x6f,
  0x75, 0x72, 0x63, 0x65, 0x00, 0x00, 0x00, 0x00, 0x4c, 0xfe, 0xff, 0xff,
  0x56, 0xff, 0xff, 0xff, 0x04, 0x00, 0x00, 0x00, 0x40, 0x00, 0x00, 0x00,
  0x2d, 0x3d, 0x30, 0xbe, 0x70, 0xfd, 0xda, 0xbd, 0xb6, 0x20, 0xf9, 0xbc,
  0xa9, 0x36, 0x72, 0xbd, 0xd4, 0x75, 0xec, 0xbd, 0xee, 0x38, 0x37, 0xbd,
  0x48, 0xb6, 0x50, 0xbd, 0x66, 0xc7, 0xc3, 0xbd, 0xad, 0x32, 0x2d, 0xbd,
  0x4f, 0x4b, 0x72, 0xbd, 0x89, 0x78, 0x7e, 0x3d, 0xff, 0xf8, 0xa6, 0xbd,
  0x7a, 0x04, 0x48, 0xbd, 0xb0, 0xaf, 0xb5, 0xbc, 0xcc, 0xb0, 0x24, 0xbb,
  0xc1, 0x65, 0x2a, 0xbd, 0x6e, 0xff, 0xff, 0xff, 0x10, 0x00, 0x00, 0x00,
  0x03, 0x00, 0x00, 0x00, 0x10, 0x00, 0x00, 0x00, 0x48, 0x00, 0x00, 0x00,
  0x01, 0x00, 0x00, 0x00, 0x10, 0x00, 0x00, 0x00, 0x33, 0x00, 0x00, 0x00,
  0x73, 0x65, 0x71, 0x75, 0x65, 0x6e, 0x74, 0x69, 0x61, 0x6c, 0x2f, 0x63,
  0x6f, 0x6e, 0x76, 0x32, 0x64, 0x5f, 0x31, 0x2f, 0x42, 0x69, 0x61, 0x73,
  0x41, 0x64, 0x64, 0x2f, 0x52, 0x65, 0x61, 0x64, 0x56, 0x61, 0x72, 0x69,
  0x61, 0x62, 0x6c, 0x65, 0x4f, 0x70, 0x2f, 0x72, 0x65, 0x73, 0x6f, 0x75,
  0x72, 0x63, 0x65, 0x00, 0x04, 0x00, 0x06, 0x00, 0x04, 0x00, 0x00, 0x00,
  0x00, 0x00, 0x06, 0x00, 0x08, 0x00, 0x04, 0x00, 0x06, 0x00, 0x00, 0x00,
  0x04, 0x00, 0x00, 0x00, 0x20, 0x00, 0x00, 0x00, 0xba, 0xb9, 0x31, 0xbe,
  0x34, 0x01, 0x1b, 0xbe, 0x8c, 0x68, 0x68, 0xbe, 0x7f, 0xc5, 0x50, 0xbe,
  0xc8, 0xf7, 0xb5, 0xbe, 0xf0, 0xe5, 0x84, 0xbe, 0x1d, 0x8f, 0xa3, 0xbe,
  0x65, 0x52, 0x60, 0xbd, 0x00, 0x00, 0x0e, 0x00, 0x14, 0x00, 0x04, 0x00,
  0x00, 0x00, 0x08, 0x00, 0x0c, 0x00, 0x10, 0x00, 0x0e, 0x00, 0x00, 0x00,
  0x10, 0x00, 0x00, 0x00, 0x02, 0x00, 0x00, 0x00, 0x10, 0x00, 0x00, 0x00,
  0x44, 0x00, 0x00, 0x00, 0x01, 0x00, 0x00, 0x00, 0x08, 0x00, 0x00, 0x00,
  0x31, 0x00, 0x00, 0x00, 0x73, 0x65, 0x71, 0x75, 0x65, 0x6e, 0x74, 0x69,
  0x61, 0x6c, 0x2f, 0x63, 0x6f, 0x6e, 0x76, 0x32, 0x64, 0x2f, 0x42, 0x69,
  0x61, 0x73, 0x41, 0x64, 0x64, 0x2f, 0x52, 0x65, 0x61, 0x64, 0x56, 0x61,
  0x72, 0x69, 0x61, 0x62, 0x6c, 0x65, 0x4f, 0x70, 0x2f, 0x72, 0x65, 0x73,
  0x6f, 0x75, 0x72, 0x63, 0x65, 0x00, 0x00, 0x00, 0x90, 0xff, 0xff, 0xff,
  0x14, 0x00, 0x18, 0x00, 0x04, 0x00, 0x00, 0x00, 0x08, 0x00, 0x0c, 0x00,
  0x10, 0x00, 0x00, 0x00, 0x00, 0x00, 0x14, 0x00, 0x14, 0x00, 0x00, 0x00,
  0x14, 0x00, 0x00, 0x00, 0x01, 0x00, 0x00, 0x00, 0x20, 0x00, 0x00, 0x00,
  0x44, 0x00, 0x00, 0x00, 0x2c, 0x00, 0x00, 0x00, 0x04, 0x00, 0x00, 0x00,
  0x01, 0x00, 0x00, 0x00, 0x40, 0x00, 0x00, 0x00, 0x03, 0x00, 0x00, 0x00,
  0x01, 0x00, 0x00, 0x00, 0x0c, 0x00, 0x00, 0x00, 0x63, 0x6f, 0x6e, 0x76,
  0x32, 0x64, 0x5f, 0x69, 0x6e, 0x70, 0x75, 0x74, 0x00, 0x00, 0x00, 0x00,
  0x04, 0x00, 0x00, 0x00, 0xff, 0xff, 0xff, 0xff, 0x40, 0x00, 0x00, 0x00,
  0x03, 0x00, 0x00, 0x00, 0x01, 0x00, 0x00, 0x00, 0xfc, 0xff, 0xff, 0xff,
  0x04, 0x00, 0x04, 0x00, 0x04, 0x00, 0x00, 0x00





};


unsigned int model_tflite_len = 13052;// Fill the int in `src/model.cc` here
